<unk>	0
<s>	0
</s>	0
,	-3.46284
▁the	-3.58045
.	-3.77701
▁of	-4.08158
s	-4.24129
▁	-4.26089
▁and	-4.29829
▁in	-4.36378
▁a	-4.68706
▁to	-4.69705
、	-4.80819
。	-4.85176
)	-4.91072
-	-5.00067
▁was	-5.2162
▁(	-5.23637
▁The	-5.37707
の	-5.44985
'	-5.4682
▁is	-5.50624
年	-5.51918
▁for	-5.55602
▁as	-5.64524
▁on	-5.6639
▁by	-5.68247
:	-5.68599
▁with	-5.74419
(	-5.77279
▁from	-5.93049
・	-5.93157
▁"	-5.97522
▁at	-5.99516
▁that	-6.01078
は	-6.03848
的	-6.15293
月	-6.1714
が	-6.18547
▁-	-6.18739
▁his	-6.24217
▁In	-6.25358
"	-6.26939
を	-6.29235
▁||	-6.34385
に	-6.37024
▁an	-6.37716
▁he	-6.42116
日	-6.52107
▁were	-6.5553
e	-6.64549
▁He	-6.65742
ing	-6.66612
▁which	-6.67049
▁also	-6.67327
で	-6.67496
▁|	-6.68295
▁are	-6.68852
」	-6.70183
▁it	-6.71227
▁A	-6.71269
▁–	-6.72683
と	-6.75404
1	-6.77487
ed	-6.78133
「	-6.78357
▁be	-6.80114
a	-6.83513
2	-6.85182
th	-6.85775
▁had	-6.86696
d	-6.8706
;	-6.88693
▁or	-6.89326
▁first	-6.93072
▁has	-6.94191
3	-7.01594
▁References	-7.01834
▁It	-7.05669
▁their	-7.07626
/	-7.11465
),	-7.11523
▁who	-7.11625
▁her	-7.14958
▁not	-7.16665
er	-7.17549
▁its	-7.17692
▁one	-7.17769
▁but	-7.18869
▁American	-7.20615
4	-7.22287
i	-7.25657
▁have	-7.26964
▁two	-7.2702
y	-7.2714
t	-7.28332
▁New	-7.30699
▁this	-7.30814
S	-7.32798
▁been	-7.35036
在	-7.36188
6	-7.38275
o	-7.41479
▁after	-7.41503
ly	-7.42068
9	-7.42488
』	-7.44056
した	-7.45027
n	-7.45039
▁people	-7.45404
▁1	-7.4582
人	-7.46118
5	-7.47236
し	-7.51419
和	-7.51902
▁other	-7.52107
▁United	-7.52148
▁de	-7.53711
▁into	-7.53943
▁I	-7.54575
▁University	-7.55486
in	-7.55666
A	-7.55999
▁they	-7.56525
▁time	-7.5792
▁she	-7.58191
から	-7.60181
▁2	-7.61903
▁S	-7.62328
▁On	-7.62345
7	-7.64197
▁all	-7.64963
▁over	-7.65538
中	-7.66283
▁links	-7.66548
es	-7.67417
や	-7.6823
▁External	-7.68357
C	-7.68372
8	-7.68659
大	-7.69236
m	-7.70044
▁players	-7.70282
▁|-	-7.70402
▁would	-7.72041
する	-7.73378
10	-7.73827
▁when	-7.73834
▁more	-7.74002
▁during	-7.75406
al	-7.75881
▁years	-7.76046
▁B	-7.76907
『	-7.77846
).	-7.77899
▁3	-7.78949
The	-7.7973
▁where	-7.79794
▁new	-7.80313
である	-7.80897
▁States	-7.81086
▁C	-7.81219
も	-7.81844
▁This	-7.8188
▁between	-7.82235
▁only	-7.82262
▁up	-7.83244
▁about	-7.85658
▁season	-7.85848
st	-7.85849
▁She	-7.85888
▁three	-7.86156
▁out	-7.86656
▁National	-7.8677
▁U	-7.874
▁World	-7.87785
▁film	-7.88291
▁can	-7.88396
=	-7.88631
▁him	-7.8887
E	-7.89184
▁made	-7.90095
▁under	-7.90931
▁later	-7.91387
en	-7.91504
▁used	-7.9233
–	-7.92551
是	-7.93693
▁part	-7.94241
として	-7.94537
12	-7.95009
▁M	-7.95678
▁F	-7.95993
一	-7.96144
▁4	-7.96882
▁team	-7.969
▁&	-7.96972
▁most	-7.97143
▁such	-7.9728
B	-7.97882
▁known	-7.97921
▁then	-7.98254
▁P	-7.98543
▁D	-7.99192
".	-7.99303
▁became	-7.99671
第	-8.00492
▁than	-8.01407
man	-8.01431
▁County	-8.01837
子	-8.0198
an	-8.02009
▁year	-8.02587
市	-8.02879
▁E	-8.03053
上	-8.03373
では	-8.03436
▁being	-8.03446
▁T	-8.03656
▁series	-8.03988
▁20	-8.04497
11	-8.04502
▁second	-8.04774
▁May	-8.05478
▁K	-8.06115
▁South	-8.06273
r	-8.06628
D	-8.06741
▁G	-8.07015
▁well	-8.07623
▁including	-8.07696
."	-8.07921
▁against	-8.08606
▁School	-8.08862
▁War	-8.09073
▁there	-8.09115
▁John	-8.09543
▁some	-8.10064
▁As	-8.10866
▁through	-8.11144
on	-8.11475
▁York	-8.11713
▁5	-8.1189
た	-8.13144
▁After	-8.13449
▁while	-8.13565
▁British	-8.13948
born	-8.14019
▁before	-8.1408
▁March	-8.14322
k	-8.14698
▁St	-8.14876
有	-8.15364
·	-8.15501
▁16	-8.16231
b	-8.16312
",	-8.16493
▁work	-8.16762
▁September	-8.16816
g	-8.17461
▁no	-8.17489
us	-8.17566
▁R	-8.18195
▁re	-8.18985
▁until	-8.19131
▁October	-8.19422
▁J	-8.19513
為	-8.19623
山	-8.202
▁January	-8.20392
▁many	-8.20396
▁August	-8.2056
▁family	-8.20688
▁name	-8.20959
="	-8.21106
▁L	-8.21128
▁both	-8.21582
▁See	-8.21947
▁June	-8.22077
▁number	-8.22519
▁album	-8.22547
▁births	-8.22904
▁July	-8.23401
な	-8.23479
▁April	-8.23619
▁—	-8.23731
▁them	-8.23855
▁played	-8.24098
▁O	-8.24333
▁10	-8.24433
▁League	-8.24638
century	-8.25224
了	-8.25712
▁released	-8.25975
▁English	-8.26066
▁H	-8.26449
▁school	-8.26493
▁November	-8.27162
▁State	-8.27718
I	-8.28154
▁City	-8.28542
▁December	-8.28545
▁life	-8.28603
名	-8.28906
▁won	-8.29148
id	-8.29972
》	-8.3007
▁area	-8.30153
M	-8.30239
▁15	-8.30305
▁may	-8.30445
c	-8.30762
《	-8.31371
る	-8.3146
▁At	-8.3177
T	-8.31802
ers	-8.31834
▁6	-8.31996
▁four	-8.32566
ス	-8.32568
▁game	-8.32573
▁football	-8.3258
or	-8.32761
▁『	-8.33736
部	-8.34033
G	-8.3432
▁state	-8.34636
F	-8.34722
▁North	-8.34965
▁7	-8.35031
▁films	-8.35456
re	-8.35982
u	-8.3625
▁W	-8.36379
▁called	-8.36549
K	-8.36564
家	-8.3677
には	-8.36967
▁same	-8.37053
▁so	-8.37529
20	-8.3769
▁career	-8.37803
l	-8.37858
▁February	-8.38194
▁following	-8.39078
▁several	-8.39156
▁former	-8.39262
された	-8.39405
▁8	-8.3991
▁city	-8.39958
本	-8.40242
▁N	-8.40825
新	-8.40907
▁early	-8.40965
▁9	-8.41092
▁12	-8.41099
後	-8.41211
to	-8.41351
▁women	-8.41604
▁will	-8.42025
▁His	-8.42482
下	-8.42578
▁History	-8.42579
h	-8.42976
z	-8.43317
▁found	-8.43389
▁since	-8.43454
the	-8.43911
30	-8.44089
P	-8.44128
▁group	-8.44699
回	-8.44969
▁French	-8.45074
▁named	-8.46034
▁They	-8.46361
地	-8.46459
分	-8.46661
▁use	-8.46867
▁People	-8.46907
▁music	-8.46952
▁began	-8.47125
!	-8.4714
’	-8.47384
▁end	-8.47542
▁No	-8.47786
▁member	-8.47946
▁place	-8.4822
▁17	-8.48382
▁held	-8.49071
之	-8.49086
日本	-8.49504
ia	-8.49597
▁based	-8.49784
▁these	-8.50002
▁College	-8.50303
している	-8.50703
▁government	-8.50769
道	-8.50957
▁German	-8.50998
者	-8.51208
前	-8.51411
de	-8.51478
三	-8.51536
R	-8.51541
不	-8.51747
線	-8.51751
▁21	-8.51916
以	-8.52361
为	-8.52476
▁established	-8.52775
▁For	-8.52821
▁V	-8.5289
▁West	-8.52978
被	-8.52982
高	-8.5377
▁home	-8.53968
町	-8.54151
時	-8.54588
▁located	-8.54772
法	-8.54897
15	-8.55048
▁high	-8.55189
西	-8.55532
na	-8.55579
▁La	-8.55585
▁District	-8.55915
is	-8.55998
▁11	-8.5616
して	-8.56308
p	-8.56327
▁International	-8.56356
▁each	-8.56501
與	-8.56584
▁set	-8.56942
▁2010	-8.57301
▁18	-8.57749
le	-8.57872
於	-8.57961
▁II	-8.58147
等	-8.58314
▁took	-8.58517
▁served	-8.58721
▁members	-8.5879
ar	-8.58999
▁London	-8.59088
H	-8.59125
▁back	-8.59464
ton	-8.59483
▁There	-8.59682
▁population	-8.59747
長	-8.59828
▁company	-8.60291
村	-8.60297
▁All	-8.60795
▁19	-8.60899
水	-8.60908
▁single	-8.61458
▁song	-8.61612
▁style	-8.62014
▁station	-8.62077
▁games	-8.62176
L	-8.62285
J	-8.62291
▁television	-8.62501
小	-8.62512
18	-8.62512
▁An	-8.62553
▁system	-8.62567
▁born	-8.62668
号	-8.62714
▁published	-8.62838
▁local	-8.62866
所	-8.62903
▁San	-8.63164
||	-8.63322
▁14	-8.6342
南	-8.6352
▁century	-8.63523
州	-8.63678
▁received	-8.63819
”	-8.6387
f	-8.63996
▁did	-8.64072
▁Living	-8.64237
▁due	-8.64292
▁However	-8.64508
▁Cup	-8.6463
▁align	-8.64959
▁built	-8.65068
この	-8.65205
国	-8.65364
▁any	-8.65496
生	-8.65527
という	-8.65706
▁around	-8.66136
el	-8.66335
▁could	-8.66446
▁public	-8.66476
及	-8.66511
その	-8.66554
他	-8.66691
25	-8.66752
▁men	-8.66784
▁/	-8.66827
田	-8.67077
年に	-8.67122
ic	-8.67173
17	-8.67175
▁species	-8.67293
W	-8.67324
出	-8.67589
▁House	-8.68103
16	-8.68796
▁'	-8.68915
▁List	-8.68982
“	-8.69213
▁long	-8.69218
化	-8.69225
ta	-8.69283
▁band	-8.69612
]	-8.697
▁club	-8.70271
▁left	-8.7042
▁history	-8.70585
N	-8.70807
文	-8.70819
)。	-8.70986
▁player	-8.71256
▁said	-8.71593
▁age	-8.71877
性	-8.72099
▁13	-8.72165
14	-8.72194
▁town	-8.72253
由	-8.72271
会	-8.72363
▁line	-8.72643
また	-8.72835
▁final	-8.72837
▁along	-8.73115
▁village	-8.73131
▁national	-8.73391
▁During	-8.73466
▁De	-8.73622
▁2008	-8.73668
ズ	-8.73752
▁died	-8.73949
など	-8.74082
ist	-8.74171
▁five	-8.74195
▁km	-8.74213
▁death	-8.74257
川	-8.74389
▁2011	-8.74596
▁include	-8.74602
▁world	-8.74692
城	-8.74761
▁now	-8.74845
▁2006	-8.74875
▁within	-8.75647
内	-8.75662
▁show	-8.75684
▁第	-8.75741
▁described	-8.76081
13	-8.76215
▁building	-8.76216
O	-8.76389
▁own	-8.76613
而	-8.76699
元	-8.7671
▁third	-8.76773
ation	-8.76962
▁because	-8.77067
い	-8.77359
▁England	-8.77463
▁Al	-8.77512
▁co	-8.77535
▁day	-8.77618
▁included	-8.77866
▁River	-8.78014
nd	-8.78076
ア	-8.78094
▁「	-8.78548
金	-8.78651
王	-8.78867
ma	-8.78929
▁large	-8.78934
特	-8.79003
▁2007	-8.79118
)、	-8.79167
▁2012	-8.79259
位	-8.79272
▁children	-8.79431
ne	-8.79481
駅	-8.79603
▁Re	-8.79628
x	-8.79701
て	-8.79916
▁2000	-8.79932
▁2009	-8.80072
海	-8.80395
land	-8.80486
昭和	-8.80578
手	-8.80862
▁2014	-8.809
▁play	-8.80929
科	-8.81186
24	-8.81549
▁like	-8.81719
東	-8.81774
▁main	-8.81806
▁service	-8.81899
▁small	-8.81973
▁Australia	-8.81977
ト	-8.82023
▁last	-8.82033
▁Party	-8.8208
▁son	-8.82083
ク	-8.82176
▁California	-8.82268
斯	-8.82292
ry	-8.82344
no	-8.82395
▁One	-8.82487
▁2016	-8.82836
▁district	-8.83064
り	-8.83194
▁off	-8.83529
▁million	-8.83587
▁Park	-8.8371
19	-8.83883
▁William	-8.83943
美	-8.84029
▁book	-8.84138
▁2013	-8.84171
V	-8.84171
区	-8.84226
多	-8.84287
ド	-8.84348
ley	-8.84376
原	-8.84396
21	-8.84582
▁male	-8.84672
同	-8.84712
son	-8.84747
島	-8.84995
—	-8.85077
▁2015	-8.85221
right	-8.85269
▁Australian	-8.8527
▁Award	-8.85335
▁do	-8.8535
ch	-8.85365
as	-8.85426
▁major	-8.85522
|	-8.85527
▁side	-8.85806
▁East	-8.8596
▁To	-8.86333
▁deaths	-8.86447
▁High	-8.86535
▁record	-8.86711
align	-8.86752
話	-8.86951
▁if	-8.87155
天	-8.8718
ism	-8.87253
28	-8.87351
德	-8.87717
▁original	-8.87756
郡	-8.87779
um	-8.87969
22	-8.88089
され	-8.885
▁moved	-8.88505
用	-8.88591
▁Army	-8.88767
▁still	-8.8877
▁war	-8.88811
外	-8.88857
▁near	-8.88919
▁non	-8.88984
▁India	-8.89025
▁those	-8.89168
▁led	-8.89368
▁bgcolor	-8.89377
▁another	-8.89385
▁water	-8.89467
北	-8.89644
26	-8.89775
か	-8.89979
▁France	-8.90106
▁Royal	-8.90278
▁James	-8.90316
▁down	-8.90329
▁US	-8.90498
able	-8.90864
▁form	-8.90897
▁European	-8.91036
面	-8.91146
▁Indian	-8.91215
大学	-8.9131
▁father	-8.91337
行	-8.91453
光	-8.91755
▁2018	-8.91761
▁title	-8.91842
▁un	-8.91918
▁2020	-8.91938
te	-8.9239
27	-8.92644
▁King	-8.92839
▁George	-8.92866
ian	-8.92868
▁Canadian	-8.93115
▁very	-8.93161
▁2005	-8.93208
23	-8.93212
▁Man	-8.93307
正	-8.93606
▁2017	-8.9362
▁30	-8.93666
▁General	-8.93792
▁announced	-8.93811
里	-8.94114
▁different	-8.94127
▁Music	-8.94547
▁Division	-8.94562
による	-8.94782
▁When	-8.94787
▁Co	-8.94883
▁late	-8.95038
ラ	-8.95071
da	-8.95216
▁often	-8.95246
co	-8.95378
▁脚注	-8.95482
▁head	-8.95535
▁role	-8.95624
▁Canada	-8.9579
▁country	-8.95852
く	-8.95858
▁best	-8.95915
▁north	-8.96039
com	-8.9604
全	-8.96095
二	-8.96181
される	-8.96198
at	-8.96199
ている	-8.96322
▁Church	-8.96863
▁2019	-8.9709
▁Association	-8.97099
カ	-8.97253
▁2004	-8.97682
ル	-8.9769
、「	-8.97783
により	-8.98067
ナ	-8.9807
▁Le	-8.98116
▁election	-8.9819
▁produced	-8.98409
up	-8.98586
▁25	-8.98751
▁Me	-8.98812
▁support	-8.99003
▁order	-8.99139
▁By	-8.99165
▁site	-8.9918
▁Air	-8.99316
▁again	-8.99349
▁Council	-8.994
与	-8.99416
野	-8.99479
▁America	-8.99511
▁m	-8.99531
▁written	-8.99643
安	-8.99782
▁six	-8.99803
et	-8.99818
ity	-8.99961
▁top	-9.00105
▁period	-9.00436
▁general	-9.00655
29	-9.00858
日に	-9.01078
▁total	-9.01214
▁started	-9.0131
▁Club	-9.01365
ka	-9.01382
▁per	-9.01457
▁international	-9.01488
社	-9.01532
也	-9.01559
▁Championship	-9.01605
▁Street	-9.01802
ra	-9.01923
▁law	-9.01958
ie	-9.01993
▁[	-9.02041
▁make	-9.02043
型	-9.02446
平	-9.02484
▁created	-9.0253
明	-9.02706
代	-9.02789
▁house	-9.03157
き	-9.03298
▁given	-9.03405
▁From	-9.03497
▁short	-9.03622
到	-9.03731
タ	-9.03761
▁went	-9.03786
▁south	-9.03888
▁power	-9.03939
局	-9.03976
ion	-9.04012
其	-9.04015
』(	-9.04027
▁version	-9.04146
▁came	-9.04283
▁David	-9.04292
▁married	-9.04377
▁First	-9.0451
▁video	-9.04552
▁community	-9.04579
▁political	-9.04941
▁class	-9.05096
la	-9.05342
版	-9.05365
▁round	-9.05402
軍	-9.05441
▁among	-9.05443
ur	-9.05552
作	-9.05912
▁Union	-9.05934
車	-9.06072
▁what	-9.06195
▁become	-9.06242
▁President	-9.06346
▁much	-9.06359
▁Japan	-9.06396
▁joined	-9.06828
▁just	-9.0684
▁Group	-9.06926
となる	-9.07016
▁Her	-9.07017
▁production	-9.07196
▁development	-9.07372
▁外部リンク	-9.07377
リ	-9.07485
▁Men	-9.07505
▁field	-9.07524
▁worked	-9.07735
▁Germany	-9.07968
▁Art	-9.08047
▁having	-9.0811
▁military	-9.0839
▁using	-9.08442
▁Year	-9.08494
へ	-9.09146
となった	-9.09153
成	-9.09326
台	-9.09386
▁African	-9.09401
▁next	-9.09415
▁various	-9.09564
木	-9.09645
and	-9.09754
▁Italian	-9.09799
▁2003	-9.10065
31	-9.10118
至	-9.10257
コ	-9.10349
神	-9.10388
▁2002	-9.10435
米	-9.10467
平成	-9.10566
X	-9.10684
▁24	-9.11057
于	-9.11346
▁land	-9.11376
▁These	-9.11495
▁Hall	-9.11527
▁win	-9.11529
▁1990	-9.11555
▁works	-9.11677
▁wrote	-9.11679
機	-9.11733
center	-9.12078
▁2001	-9.12174
▁returned	-9.12215
▁Japanese	-9.12267
it	-9.12324
▁Russian	-9.12338
公	-9.1246
▁China	-9.12604
力	-9.12852
によって	-9.13035
▁professional	-9.13036
▁p	-9.13043
林	-9.1314
利	-9.13228
式	-9.13312
ノ	-9.13518
▁Z	-9.13578
入	-9.13601
▁Women	-9.13831
馬	-9.13877
見	-9.13993
li	-9.14049
il	-9.14055
路	-9.14328
▁even	-9.14353
石	-9.1457
▁Best	-9.1465
史	-9.14663
w	-9.14761
&	-9.14925
み	-9.15039
▁position	-9.15086
より	-9.15131
▁opened	-9.15298
▁events	-9.15364
▁way	-9.15434
▁take	-9.1551
▁church	-9.15579
▁Robert	-9.15617
であり	-9.15628
▁Paul	-9.15639
されている	-9.15743
ロ	-9.15856
=#	-9.15981
▁director	-9.16097
次	-9.16119
▁Games	-9.16197
学	-9.16266
▁Court	-9.16305
▁2021	-9.16387
▁match	-9.16417
▁songs	-9.16561
▁El	-9.16671
立	-9.16766
マ	-9.16901
U	-9.16965
数	-9.17106
me	-9.17381
▁event	-9.17399
會	-9.17492
作品	-9.17501
▁According	-9.17654
▁With	-9.17698
▁Act	-9.17782
事	-9.17786
▁without	-9.1798
ir	-9.17988
重	-9.18202
▁Road	-9.1822
▁Company	-9.18409
但	-9.18409
rd	-9.18477
克	-9.18615
▁research	-9.18641
▁Washington	-9.18683
▁Red	-9.18799
▁region	-9.19025
▁Center	-9.19036
都	-9.19072
▁:	-9.1917
▁Football	-9.19466
os	-9.19512
▁students	-9.19628
▁Society	-9.1964
▁22	-9.19731
▁debut	-9.1984
▁Press	-9.1991
世界	-9.19949
▁few	-9.19978
year	-9.19982
▁Records	-9.19982
ge	-9.20029
▁art	-9.20072
自	-9.20207
▁d	-9.20241
▁Kingdom	-9.20294
▁however	-9.20343
方	-9.20484
é	-9.2067
▁party	-9.20681
▁=	-9.20741
▁Black	-9.20756
▁teams	-9.2077
への	-9.20789
▁services	-9.20824
▁lead	-9.20858
▁1980	-9.20944
▁Thomas	-9.20969
0	-9.21235
▁Summer	-9.21338
j	-9.21414
▁“	-9.21437
▁Other	-9.21438
Z	-9.21494
った	-9.21554
▁lost	-9.21619
▁TV	-9.21768
▁continued	-9.21771
系	-9.2189
夫	-9.21961
▁100	-9.22088
物	-9.22132
▁education	-9.22151
am	-9.2222
ro	-9.22243
無	-9.22311
▁Awards	-9.22509
口	-9.22519
▁footballers	-9.22556
花	-9.22622
」(	-9.22716
▁right	-9.22981
▁full	-9.23004
▁X	-9.23092
▁Central	-9.23141
se	-9.232
▁Institute	-9.23238
▁times	-9.23474
▁program	-9.23493
v	-9.23758
▁appointed	-9.23921
であった	-9.23933
▁days	-9.24137
▁considered	-9.24159
▁run	-9.24202
后	-9.24204
向	-9.24289
▁completed	-9.24367
▁old	-9.24438
▁website	-9.24458
▁Department	-9.24461
▁elected	-9.24596
▁Charles	-9.24598
men	-9.24618
by	-9.24622
▁albums	-9.24658
▁directed	-9.24717
▁Europe	-9.24788
シ	-9.24825
▁recorded	-9.24866
▁参考文献	-9.24878
▁23	-9.24967
▁half	-9.25135
▁Early	-9.25181
▁alumni	-9.25202
▁founded	-9.25238
▁signed	-9.25323
語	-9.25325
戦	-9.25473
心	-9.25474
形	-9.25511
▁league	-9.25516
▁2022	-9.25603
バ	-9.25667
▁man	-9.26018
▁wife	-9.26058
▁Roman	-9.26237
▁points	-9.26262
▁case	-9.26398
▁Western	-9.26417
並	-9.26459
▁Museum	-9.26466
▁point	-9.26539
ine	-9.26589
der	-9.26786
▁official	-9.26876
ter	-9.26957
場	-9.27005
目	-9.27237
▁present	-9.27258
▁1,	-9.27332
省	-9.27367
▁Michael	-9.27445
曲	-9.27484
ri	-9.27636
▁c	-9.27691
▁groups	-9.27717
▁Film	-9.2773
▁Academy	-9.27734
ner	-9.27885
▁Island	-9.2793
one	-9.27939
▁further	-9.28123
den	-9.28182
▁race	-9.28196
約	-9.28231
或	-9.28317
站	-9.28481
ment	-9.28586
がある	-9.28599
▁project	-9.28635
▁result	-9.2876
▁Olympics	-9.28883
▁Chinese	-9.28939
頭	-9.29062
女	-9.29066
音	-9.2907
▁office	-9.29241
▁Republic	-9.29317
▁areas	-9.29348
▁UK	-9.29371
書	-9.29425
▁story	-9.29439
寺	-9.29456
▁character	-9.29458
可	-9.29467
?	-9.29555
ate	-9.29558
▁Africa	-9.29647
体	-9.29889
期	-9.301
▁design	-9.30171
ca	-9.30205
▁data	-9.30268
▁level	-9.30297
▁appeared	-9.30387
▁together	-9.30402
ダ	-9.30503
▁Zealand	-9.30602
▁Mar	-9.30609
ム	-9.3066
▁release	-9.30706
50	-9.30732
▁car	-9.30791
▁control	-9.30908
▁1999	-9.31009
▁addition	-9.31038
▁list	-9.31091
▁live	-9.31221
▁1970	-9.31266
イ	-9.31292
世	-9.31536
つ	-9.3156
オ	-9.31563
使用	-9.31563
白	-9.31568
▁president	-9.31581
ni	-9.31828
▁social	-9.31846
▁26	-9.31898
▁Spanish	-9.32048
〜	-9.32091
拉	-9.32288
集	-9.32321
加	-9.32335
ov	-9.3234
していた	-9.32383
left	-9.32417
尔	-9.32474
▁White	-9.32488
▁developed	-9.32553
▁1960	-9.32681
点	-9.32713
▁Bay	-9.3277
▁business	-9.32787
▁Grand	-9.32802
中国	-9.32841
▁working	-9.32848
▁important	-9.33003
との	-9.33065
▁While	-9.33214
ty	-9.33288
▁Minister	-9.33333
▁la	-9.33367
▁mother	-9.33465
す	-9.33594
▁formed	-9.33617
お	-9.3373
▁()	-9.33827
フ	-9.34004
▁making	-9.34017
un	-9.34065
間	-9.34152
主	-9.34231
政府	-9.34265
▁28	-9.34601
▁Great	-9.34642
度	-9.34644
真	-9.34827
▁al	-9.35044
▁Peter	-9.35092
ous	-9.35182
まで	-9.35568
▁language	-9.35644
通	-9.36011
▁popular	-9.36024
Y	-9.36043
▁Texas	-9.36052
ve	-9.36203
▁daughter	-9.36228
ina	-9.36349
ら	-9.36588
にも	-9.36654
▁Pro	-9.3668
▁post	-9.36888
▁example	-9.36987
江	-9.37015
達	-9.37015
四	-9.37069
▁Some	-9.37139
▁27	-9.37313
▁similar	-9.37428
▁every	-9.37471
▁himself	-9.37546
ya	-9.3775
▁track	-9.37839
▁1998	-9.37866
▁air	-9.37956
▁across	-9.37977
▁black	-9.37978
▁companies	-9.38286
▁average	-9.38646
▁coach	-9.38786
ak	-9.38838
レ	-9.38849
▁east	-9.38892
サ	-9.38962
年の	-9.3903
エ	-9.39057
▁Lake	-9.39082
▁body	-9.39086
▁関連項目	-9.39182
▁common	-9.39294
制	-9.39363
清	-9.39448
文化	-9.3945
谷	-9.39471
▁Dr	-9.39475
星	-9.39504
▁radio	-9.39643
各	-9.39883
東京	-9.4007
▁Be	-9.40115
勝	-9.40229
–19	-9.40632
國	-9.40931
ul	-9.41169
ad	-9.41265
爾	-9.41296
▁Go	-9.41351
▁buildings	-9.41479
マン	-9.41527
▁playing	-9.41601
▁Paris	-9.41702
▁Order	-9.41789
time	-9.4192
▁Los	-9.42149
隊	-9.42275
代表	-9.42306
▁modern	-9.42344
▁schools	-9.42431
▁Henry	-9.42476
▁episode	-9.42491
男	-9.42514
▁west	-9.42515
ling	-9.42652
▁Catholic	-9.42655
▁term	-9.42779
ジ	-9.42834
▁available	-9.42849
相	-9.42874
▁politician	-9.42894
定	-9.42924
▁how	-9.43023
▁Life	-9.43087
▁pre	-9.43157
ce	-9.43247
▁stage	-9.43275
▁performed	-9.4334
ham	-9.43431
ため	-9.43502
go	-9.43504
的な	-9.43608
age	-9.43637
時間	-9.43661
▁construction	-9.43747
▁Christian	-9.44003
40	-9.44029
▁My	-9.44112
▁special	-9.44127
英	-9.44129
▁young	-9.4413
▁information	-9.44192
▁road	-9.44221
▁stations	-9.4426
▁free	-9.44291
流	-9.44551
ガ	-9.44564
▁1950	-9.44568
▁although	-9.44588
ive	-9.44626
▁You	-9.44656
▁we	-9.4472
mo	-9.44781
ba	-9.44883
▁sold	-9.44977
▁gave	-9.45018
ニ	-9.4523
▁performance	-9.4523
風	-9.45295
門	-9.45362
吉	-9.45507
でも	-9.45607
▁female	-9.45613
▁Education	-9.45638
ha	-9.45811
ness	-9.45812
▁open	-9.45862
▁finished	-9.45887
▁reported	-9.45892
▁killed	-9.45964
デ	-9.46112
▁1996	-9.46158
▁others	-9.46169
▁29	-9.46243
比	-9.46306
▁Ireland	-9.46349
官	-9.46387
ki	-9.46399
▁Saint	-9.4641
だった	-9.46549
～	-9.46552
キ	-9.46556
▁media	-9.46674
▁living	-9.46703
▁artists	-9.46917
▁months	-9.47031
▁Olympic	-9.47052
▁Mary	-9.47083
line	-9.47167
區	-9.47258
▁away	-9.47335
来	-9.47368
):	-9.47395
▁should	-9.47446
lin	-9.47458
▁Love	-9.475
阿	-9.47553
ke	-9.47582
での	-9.47592
▁return	-9.4764
▁human	-9.47665
▁followed	-9.47702
▁establishments	-9.47724
▁seven	-9.47777
▁current	-9.47873
放送	-9.47999
万	-9.48044
▁Super	-9.48058
▁help	-9.48061
氏	-9.48061
▁Soviet	-9.48306
士	-9.48378
愛	-9.48452
▁white	-9.48481
對	-9.48505
ant	-9.48522
基	-9.48526
▁Richard	-9.48528
▁Virginia	-9.4854
▁never	-9.48584
be	-9.486
▁taken	-9.48642
▁books	-9.488
▁though	-9.48814
▁brother	-9.48815
▁Smith	-9.48822
do	-9.48931
格	-9.48989
▁awarded	-9.49093
▁sub	-9.49137
▁less	-9.4919
▁Government	-9.49408
▁birth	-9.49427
ized	-9.49558
ko	-9.49585
▁Notes	-9.49751
▁Green	-9.49801
ti	-9.49846
屋	-9.50019
ツ	-9.50212
室	-9.50257
▁Championships	-9.50267
▁designed	-9.50332
こ	-9.50361
▁So	-9.5038
▁Hill	-9.50394
lo	-9.50397
リー	-9.50621
開	-9.50638
field	-9.5069
▁Films	-9.507
▁Force	-9.5073
ブ	-9.50739
古	-9.50837
研究	-9.50875
武	-9.50908
▁features	-9.51118
ard	-9.51168
因	-9.512
▁you	-9.51232
▁front	-9.51235
ミ	-9.51294
▁process	-9.51389
五	-9.51471
▁Y	-9.51573
▁tournament	-9.51626
▁Career	-9.51801
信	-9.51826
ville	-9.51849
宮	-9.51912
將	-9.51932
▁remained	-9.51963
▁places	-9.52071
ana	-9.52108
▁study	-9.52183
橋	-9.52254
▁does	-9.52352
▁50	-9.52353
+	-9.524
▁police	-9.52493
ja	-9.52531
▁fire	-9.52593
di	-9.52644
太	-9.52654
TV	-9.5267
▁featured	-9.52699
▁Railway	-9.52811
▁FC	-9.52875
▁forces	-9.52875
▁originally	-9.52879
ler	-9.52959
▁shows	-9.53013
▁1997	-9.53052
▁once	-9.53082
▁largest	-9.53269
▁Historic	-9.53307
組	-9.53334
▁go	-9.53363
▁Star	-9.53449
▁includes	-9.5349
▁di	-9.5355
▁eight	-9.53617
▁Chicago	-9.53702
▁Day	-9.539
教育	-9.5391
▁Province	-9.53932
▁scored	-9.53957
ネ	-9.53994
▁singer	-9.5405
チ	-9.54102
▁Festival	-9.54116
▁training	-9.54243
▁great	-9.5428
▁aircraft	-9.54285
▁Mexico	-9.54324
年生	-9.5433
▁refer	-9.54449
▁1995	-9.54508
▁Martin	-9.54561
▁Arts	-9.54598
less	-9.54672
政	-9.54682
合	-9.54755
身	-9.54762
▁rock	-9.54836
▁leading	-9.54871
院	-9.54922
治	-9.55029
▁must	-9.55112
▁Law	-9.55123
▁日本の	-9.55125
sa	-9.55241
う	-9.55381
現	-9.55386
波	-9.55394
▁attack	-9.5543
▁小行星	-9.55474
知	-9.55495
im	-9.55501
▁Committee	-9.55546
...	-9.55558
初	-9.55566
▁writer	-9.55613
▁artist	-9.55617
って	-9.55643
▁Two	-9.55653
井	-9.55728
▁e	-9.55784
派	-9.55813
▁novel	-9.55866
開始	-9.55914
▁sent	-9.5595
任	-9.56016
▁Italy	-9.56097
▁seen	-9.56108
▁introduced	-9.5614
▁Second	-9.5614
▁basketball	-9.56143
▁Since	-9.56173
▁1994	-9.56176
▁court	-9.56218
字	-9.56278
va	-9.56327
▁rights	-9.56423
▁throughout	-9.56449
▁involved	-9.56484
▁!	-9.56509
▁campaign	-9.56529
ザ	-9.5661
▁Irish	-9.56632
直	-9.56764
▁Battle	-9.56786
▁close	-9.56803
役	-9.56987
義	-9.57019
活動	-9.5702
▁Navy	-9.57022
賞	-9.57026
▁Sir	-9.57057
()	-9.57094
▁mid	-9.5717
ま	-9.57196
▁eventually	-9.57292
ated	-9.57388
などの	-9.57406
▁range	-9.57431
民	-9.57476
▁Mark	-9.57507
mer	-9.57528
店	-9.57634
シリーズ	-9.57903
▁good	-9.57926
长	-9.57934
▁Science	-9.58025
映画	-9.5806
さ	-9.58094
▁Although	-9.58104
▁1992	-9.58265
对	-9.58284
船	-9.58392
100	-9.58447
▁stated	-9.58451
▁author	-9.58498
歌	-9.58516
▁Ma	-9.58613
座	-9.58885
▁(18	-9.58947
▁countries	-9.59002
▁Mount	-9.59015
▁added	-9.59148
American	-9.59219
河	-9.59243
▁listed	-9.59276
編	-9.5937
▁competition	-9.59449
中央	-9.59598
起	-9.59714
▁change	-9.59814
▁previous	-9.59818
▁replaced	-9.59851
ディ	-9.59855
事件	-9.5987
▁college	-9.59907
▁fourth	-9.59989
月に	-9.60019
▁Sea	-9.60207
龍	-9.60209
▁日本	-9.60349
▁Florida	-9.60437
▁ten	-9.60439
▁space	-9.60452
▁light	-9.60482
着	-9.60487
ey	-9.60606
▁Con	-9.60619
▁results	-9.60747
能	-9.60908
ish	-9.60933
同年	-9.60938
ティ	-9.61085
▁association	-9.61102
▁low	-9.61219
兵	-9.61284
ang	-9.613
イン	-9.61301
▁Service	-9.61361
学校	-9.61363
宗	-9.61495
▁Most	-9.61722
および	-9.61753
▁40	-9.61764
▁sea	-9.61782
–18	-9.61795
▁least	-9.6184
In	-9.61946
巻	-9.61969
▁1993	-9.61984
▁degree	-9.61995
▁Greek	-9.62004
▁Do	-9.6206
▁contract	-9.62069
縣	-9.62161
▁private	-9.62176
ていた	-9.62201
▁vocals	-9.62219
▁Russia	-9.62271
ga	-9.62329
ting	-9.62401
尾	-9.62537
▁type	-9.62543
▁Angeles	-9.62563
ek	-9.62638
▁《	-9.62654
▁Northern	-9.62697
▁above	-9.62733
▁able	-9.62752
▁model	-9.62764
▁Official	-9.62841
▁either	-9.62941
▁goal	-9.62946
校	-9.6306
▁Wales	-9.63108
▁put	-9.63153
▁via	-9.63207
▁0	-9.63247
▁central	-9.63458
器	-9.63539
▁writers	-9.63576
将	-9.63789
ies	-9.63831
志	-9.63881
▁guitar	-9.63935
色	-9.63959
▁get	-9.64065
量	-9.64164
▁provided	-9.64232
pa	-9.64325
森	-9.64339
▁Series	-9.64343
▁31	-9.64375
▁ship	-9.64436
▁Ar	-9.64561
▁currently	-9.64759
io	-9.64782
▁Public	-9.64826
▁units	-9.64899
港	-9.64973
sen	-9.65011
县	-9.65074
李	-9.65181
ary	-9.65235
za	-9.65291
▁Pan	-9.65363
▁1991	-9.6544
▁anti	-9.65464
▁Carolina	-9.65507
▁Radio	-9.65517
▁staff	-9.6557
▁placed	-9.65575
八	-9.65597
rs	-9.65692
▁Team	-9.65705
▁railway	-9.65803
ny	-9.65926
▁Car	-9.66003
卡	-9.66093
▁Research	-9.66191
▁ground	-9.66208
▁Lee	-9.66221
day	-9.66363
▁action	-9.6637
text	-9.66376
▁upon	-9.66427
地区	-9.66478
▁health	-9.66561
首	-9.66656
モ	-9.66703
mi	-9.66727
しかし	-9.66949
グ	-9.67018
▁Empire	-9.67047
▁reached	-9.6707
▁center	-9.67109
▁drama	-9.67209
館	-9.67279
▁usually	-9.67288
堂	-9.67339
▁night	-9.67405
时	-9.67468
ji	-9.67514
▁board	-9.67515
he	-9.6775
old	-9.67908
▁size	-9.67909
メ	-9.67963
▁Rock	-9.68019
最	-9.68019
ford	-9.68034
▁studio	-9.68252
香港	-9.68284
▁leader	-9.68294
布	-9.68319
ゲーム	-9.6833
番	-9.68336
▁attended	-9.68415
ウ	-9.68419
ン	-9.68426
▁culture	-9.68506
▁hand	-9.68583
▁con	-9.6862
にある	-9.68664
▁edition	-9.68746
番組	-9.68769
▁actor	-9.68806
級	-9.68846
▁river	-9.68862
雄	-9.68863
▁census	-9.68898
土	-9.68923
▁characters	-9.69071
language	-9.69076
片	-9.69192
▁start	-9.69194
▁Don	-9.69391
▁saw	-9.69396
▁Bar	-9.69457
▁Brown	-9.69462
巴	-9.69477
明治	-9.69496
background	-9.69586
Q	-9.69642
▁person	-9.6968
▁missing	-9.69713
▁Tour	-9.69828
火	-9.69981
▁Assembly	-9.69983
にて	-9.69988
種	-9.70071
48	-9.70187
▁2,	-9.70335
▁Democratic	-9.70425
セ	-9.70436
▁section	-9.70442
▁decided	-9.70444
wood	-9.70451
▁Dutch	-9.70615
▁Ka	-9.70639
▁Old	-9.70799
em	-9.70819
▁active	-9.70893
▁We	-9.70907
▁movement	-9.7094
of	-9.70945
▁Scottish	-9.70999
▁reading	-9.71052
▁Sa	-9.71089
off	-9.71101
ビ	-9.71125
▁me	-9.71161
▁Ko	-9.71199
well	-9.71282
per	-9.71339
out	-9.71442
▁gold	-9.71484
において	-9.71497
ization	-9.71597
とは	-9.7171
▁provide	-9.71748
▁Parliament	-9.71749
公司	-9.71798
▁states	-9.71903
based	-9.71983
▁instead	-9.72057
▁Ben	-9.72215
第一	-9.72221
▁Town	-9.72228
▁producer	-9.72231
▁Di	-9.72246
▁Tom	-9.72279
▁winning	-9.72373
▁Joseph	-9.72444
▁v	-9.72453
球	-9.72459
旧	-9.72513
教	-9.7252
▁defeated	-9.72535
▁Board	-9.72546
▁previously	-9.72643
▁Bo	-9.72693
▁1988	-9.72713
內	-9.72736
▁sports	-9.72739
▁1930	-9.72796
▁dis	-9.72898
est	-9.72913
▁Spain	-9.73151
華	-9.73256
空	-9.73284
先	-9.73291
32	-9.7331
▁musical	-9.73385
军	-9.73409
プ	-9.73527
ung	-9.73554
60	-9.73557
▁Pennsylvania	-9.73581
▁whose	-9.73594
六	-9.7361
ol	-9.73633
就	-9.73636
▁capital	-9.73709
バス	-9.73829
今	-9.73864
羅	-9.73923
副	-9.73945
▁Major	-9.73991
だ	-9.74166
受	-9.74167
曾	-9.7418
▁behind	-9.74201
尼	-9.74378
▁see	-9.74466
カー	-9.74495
▁seasons	-9.745
日本の	-9.7454
▁Following	-9.74566
▁Un	-9.7459
此	-9.74621
管理	-9.74692
▁force	-9.74733
并	-9.74743
▁families	-9.74829
▁success	-9.74884
來	-9.74961
au	-9.74978
▁Register	-9.75056
▁collection	-9.75062
▁Asian	-9.75091
▁rather	-9.75105
▁Later	-9.75117
▁Military	-9.75259
理	-9.75305
bo	-9.75362
▁possible	-9.75468
way	-9.75498
▁division	-9.75523
半	-9.75537
著	-9.75609
進	-9.75644
▁organization	-9.75928
朝	-9.75955
▁represented	-9.75982
tra	-9.76141
▁Southern	-9.76157
工	-9.76184
後に	-9.76189
▁structure	-9.76225
▁outside	-9.76268
▁Congress	-9.76327
▁Its	-9.76589
▁island	-9.76674
▁Edward	-9.76674
司	-9.76681
▁Or	-9.76704
con	-9.76722
▁writing	-9.76815
▁beginning	-9.76816
▁primary	-9.76833
となり	-9.7686
▁ex	-9.76864
▁brought	-9.76921
▁studies	-9.76921
久	-9.76971
ger	-9.76982
千	-9.76994
ー	-9.76999
▁hit	-9.77002
▁lower	-9.77099
共	-9.77112
則	-9.77139
▁1989	-9.77176
▁industry	-9.77189
▁successful	-9.77198
塔	-9.77221
パ	-9.77301
▁plays	-9.77342
▁base	-9.77442
ah	-9.77521
打	-9.77664
ted	-9.7779
反	-9.77828
-19	-9.77906
▁("	-9.77945
▁pro	-9.77955
▁network	-9.77962
▁God	-9.77979
▁Louis	-9.78049
▁Jewish	-9.78167
pe	-9.78253
▁interest	-9.78266
▁magazine	-9.78297
ハ	-9.7836
▁Su	-9.78376
▁en	-9.7842
ru	-9.78541
▁Line	-9.78557
▁regular	-9.7856
▁footballer	-9.78564
伊	-9.78619
▁Valley	-9.78621
▁Sports	-9.78635
▁allowed	-9.78678
▁1920	-9.78782
死	-9.78815
▁Big	-9.78833
▁III	-9.78847
:#	-9.78859
例	-9.7892
▁love	-9.78949
ini	-9.78968
▁ended	-9.79099
▁closed	-9.79108
▁summer	-9.79186
再	-9.7921
▁Li	-9.79276
▁child	-9.79328
▁parts	-9.79328
ber	-9.79379
▁almost	-9.79382
▁et	-9.79406
▁self	-9.79456
気	-9.79562
その後	-9.79642
▁singles	-9.79741
▁Cross	-9.79753
▁southern	-9.79756
▁Times	-9.79887
地域	-9.79904
▁Sun	-9.79945
▁northern	-9.79986
え	-9.79999
ent	-9.80071
ier	-9.80096
ster	-9.80132
side	-9.8014
要	-9.80256
▁market	-9.803
▁1987	-9.8033
▁systems	-9.80337
選手	-9.80387
別	-9.80408
国家	-9.80415
包括	-9.8046
好	-9.80484
▁runs	-9.80487
gen	-9.80508
號	-9.8055
▁matches	-9.80731
テ	-9.80743
師	-9.80786
▁met	-9.80796
常	-9.80804
▁route	-9.80826
▁shot	-9.80919
作曲	-9.80997
▁changed	-9.8111
▁woman	-9.81155
▁Long	-9.81162
▁1986	-9.81163
ut	-9.81168
▁science	-9.81234
▁Civil	-9.81248
未	-9.81264
め	-9.81343
▁Lu	-9.8136
▁Mac	-9.81379
▁Ohio	-9.81413
▁real	-9.81494
▁significant	-9.81525
松	-9.81527
體	-9.81547
群	-9.81554
▁manager	-9.81607
▁役	-9.81761
▁plant	-9.81796
kin	-9.818
▁towards	-9.8182
▁1984	-9.81851
▁week	-9.81856
▁independent	-9.8192
▁CD	-9.81958
▁Sam	-9.81994
ll	-9.81999
▁Bill	-9.82036
▁Television	-9.82058
▁far	-9.82087
得	-9.82091
▁award	-9.82103
春	-9.82123
mm	-9.82228
▁Michigan	-9.82296
▁Post	-9.82319
」「	-9.82339
における	-9.82417
▁rest	-9.82446
選	-9.82455
▁taking	-9.82506
当	-9.82526
▁whom	-9.8258
▁owned	-9.82643
該	-9.82694
tic	-9.82713
使	-9.8275
出版	-9.82763
聖	-9.82789
▁operations	-9.8281
les	-9.82813
-1	-9.82842
ze	-9.82865
非	-9.82882
女性	-9.82943
品	-9.82952
▁Vol	-9.83153
▁Young	-9.83212
ver	-9.83225
▁launched	-9.83231
▁date	-9.83331
▁Members	-9.83391
▁Britain	-9.83392
人物	-9.83445
▁Van	-9.83446
ite	-9.8345
▁Prince	-9.83452
ケ	-9.83485
▁opening	-9.835
▁Lord	-9.83531
);	-9.83543
▁approximately	-9.83548
chi	-9.83583
▁past	-9.83606
▁大	-9.83658
バー	-9.83682
▁du	-9.83831
▁multiple	-9.83837
▁officer	-9.8384
berg	-9.83873
ik	-9.83876
▁additional	-9.83911
▁Commission	-9.8394
▁trade	-9.83954
▁Ne	-9.83971
▁Places	-9.83974
▁plan	-9.84011
▁future	-9.84064
▁individual	-9.84191
族	-9.84211
周	-9.84223
▁Top	-9.84231
▁Poland	-9.84262
▁tour	-9.843
ally	-9.84363
▁senior	-9.84377
部分	-9.84441
▁genus	-9.84445
母	-9.8447
のみ	-9.84501
▁Ha	-9.84509
▁army	-9.84621
章	-9.84671
業	-9.84767
▁Asia	-9.84786
▁commercial	-9.84818
▁Mo	-9.84821
▁Scotland	-9.84878
▁itself	-9.84895
ten	-9.84899
▁unit	-9.85018
▁Under	-9.85036
以及	-9.85114
▁Bank	-9.85165
保	-9.85252
▁Per	-9.85261
街	-9.85351
いた	-9.85352
▁goals	-9.85438
▁Pacific	-9.85514
▁centre	-9.85574
問題	-9.85609
電	-9.85657
▁according	-9.85688
")	-9.85737
ck	-9.85738
▁especially	-9.85757
個	-9.85774
監督	-9.85795
▁higher	-9.8581
▁Open	-9.8583
▁traditional	-9.85837
▁score	-9.85885
▁cases	-9.85891
▁En	-9.8592
▁little	-9.85938
永	-9.85955
▁Polish	-9.86022
▁(17	-9.86053
▁cast	-9.86111
〈	-9.86152
▁wide	-9.86196
CD	-9.86206
▁Chief	-9.8624
▁Conference	-9.86265
▁highest	-9.86313
▁battle	-9.86316
県	-9.86328
表	-9.86514
▁Theatre	-9.86535
▁spent	-9.8655
▁Blue	-9.86624
▁Queen	-9.86666
鉄道	-9.86702
良	-9.86739
▁Illinois	-9.8674
▁Na	-9.86749
発	-9.86774
▁required	-9.86783
▁Further	-9.86787
ゴ	-9.86834
香	-9.86872
mar	-9.86968
▁related	-9.87023
▁practice	-9.87088
党	-9.871
建	-9.87179
▁Library	-9.87205
wa	-9.87322
▁noted	-9.87535
▁Frank	-9.87568
▁victory	-9.87594
38	-9.87611
論	-9.87625
修	-9.87635
▁soon	-9.87656
▁loss	-9.87732
dy	-9.87755
▁park	-9.87775
▁Track	-9.87789
員	-9.87808
▁issues	-9.87827
▁lived	-9.87838
ac	-9.8786
▁money	-9.87893
▁Pre	-9.8791
▁ever	-9.87981
▁property	-9.88002
▁Home	-9.88025
▁ran	-9.88118
ター	-9.88185
アン	-9.88317
▁1985	-9.88336
▁location	-9.88381
▁means	-9.88459
沢	-9.88494
▁Time	-9.88626
▁appearance	-9.88656
▁b	-9.88659
▁access	-9.88683
▁概要	-9.88709
▁strong	-9.88714
▁entered	-9.8879
80	-9.88857
▁food	-9.8888
▁seat	-9.88895
42	-9.88945
スト	-9.88946
更	-9.88963
▁county	-9.88981
ron	-9.88993
ワ	-9.89042
小学校	-9.89062
▁Development	-9.89062
▁g	-9.89077
ない	-9.89184
▁Georgia	-9.89232
▁+	-9.89284
▁student	-9.89368
▁Kong	-9.89369
こと	-9.8941
ating	-9.89411
▁sometimes	-9.8948
45	-9.89481
▁natural	-9.89482
年代	-9.89531
with	-9.89532
▁2019,	-9.89548
▁Jack	-9.89554
角	-9.89582
年度	-9.89652
▁legal	-9.89659
▁come	-9.89673
▁my	-9.89688
▁course	-9.89735
人の	-9.89802
▁associated	-9.8988
该	-9.89978
▁contains	-9.89982
▁Columbia	-9.90049
35	-9.90073
▁below	-9.90083
▁Eastern	-9.90133
▁feature	-9.90143
▁thus	-9.90225
▁Jones	-9.90258
▁professor	-9.9029
▁Har	-9.90304
▁Boston	-9.90305
▁decision	-9.90316
▁If	-9.90365
▁red	-9.90409
如	-9.90417
第二	-9.90444
▁Massachusetts	-9.90499
▁Many	-9.90518
▁Jersey	-9.90596
→	-9.90621
中心	-9.90621
食	-9.90655
▁earlier	-9.90698
▁Da	-9.9072
ot	-9.90723
▁Office	-9.90742
む	-9.90755
あ	-9.90755
シュ	-9.90874
テレビ	-9.90891
▁find	-9.91054
▁move	-9.91079
ボ	-9.91101
七	-9.91125
▁cover	-9.91146
ino	-9.9117
▁selected	-9.9117
属	-9.91191
▁standard	-9.91202
連	-9.91231
根	-9.91243
▁2018,	-9.91263
▁Health	-9.91264
▁2017,	-9.91334
马	-9.91344
▁Hong	-9.91473
han	-9.91488
▁elections	-9.91534
▁Ho	-9.91579
▁medical	-9.91583
▁structures	-9.91598
Re	-9.91616
▁issue	-9.91638
▁studied	-9.91686
▁2016,	-9.91745
条	-9.91759
▁Johnson	-9.91798
事業	-9.91859
36	-9.91889
▁That	-9.91941
▁2013,	-9.91941
▁politicians	-9.92001
▁2015,	-9.92017
▁ships	-9.92059
大会	-9.92095
▁becoming	-9.92108
▁2014,	-9.92111
ran	-9.92196
從	-9.92201
▁fact	-9.92283
▁2023	-9.92291
▁Book	-9.92361
▁2012,	-9.92397
33	-9.92416
ex	-9.92429
雷	-9.92429
ヤ	-9.92475
▁economic	-9.92477
▁Centre	-9.92511
▁generally	-9.92526
▁management	-9.92568
▁2011,	-9.92626
▁Jan	-9.92646
▁increased	-9.92755
▁caused	-9.92789
▁1983	-9.92813
▁running	-9.92836
▁activities	-9.92862
▁Foundation	-9.92916
://	-9.93065
▁3,	-9.93097
、『	-9.93099
取	-9.93133
近	-9.93143
女子	-9.93159
▁already	-9.93177
▁report	-9.93238
ata	-9.9342
▁initially	-9.93432
からの	-9.93542
▁2010,	-9.93546
出身の人物	-9.93654
記	-9.93702
ney	-9.93755
▁union	-9.93773
▁Is	-9.93798
▁chief	-9.93843
▁evidence	-9.93914
について	-9.9392
▁comedy	-9.9393
▁religious	-9.93945
▁Francisco	-9.93976
▁material	-9.93984
▁Ke	-9.94017
sh	-9.94023
▁But	-9.94025
▁Ni	-9.94035
▁operated	-9.94045
ists	-9.94052
东	-9.94062
op	-9.94082
▁Final	-9.94083
▁command	-9.94085
▁husband	-9.94109
▁1982	-9.94184
可以	-9.942
生活	-9.94241
▁Jean	-9.94285
▁Scott	-9.94298
▁Station	-9.94423
即	-9.94587
▁numerous	-9.94636
▁i	-9.94698
▁retired	-9.947
▁Ver	-9.94728
▁civil	-9.94831
制作	-9.94835
▁majority	-9.94854
感	-9.94921
」。	-9.94941
▁championship	-9.94946
▁Director	-9.94969
表示	-9.94987
已	-9.95001
▁western	-9.95004
▁Night	-9.95144
▁2020,	-9.95259
sk	-9.95261
46	-9.95267
▁Lo	-9.95269
▁Se	-9.95303
lan	-9.95329
▁Song	-9.95402
▁Ba	-9.95406
▁better	-9.95419
for	-9.95455
ella	-9.95467
▁Land	-9.95495
▁length	-9.95734
je	-9.95779
▁thought	-9.95801
組織	-9.95859
ts	-9.95862
don	-9.95864
á	-9.95887
▁annual	-9.95895
情報	-9.95907
世紀	-9.95926
▁department	-9.95961
▁personal	-9.95972
▁Gold	-9.96085
▁relationship	-9.96096
▁Port	-9.96105
▁1972	-9.96251
▁Of	-9.96274
地方	-9.96315
▁university	-9.96334
ful	-9.96387
▁1979	-9.96389
張	-9.96522
商	-9.96543
vo	-9.96547
ヒ	-9.96593
守	-9.96604
gi	-9.96708
▁federal	-9.96725
▁too	-9.96844
▁Biography	-9.96846
▁cost	-9.96851
34	-9.96855
▁Gar	-9.9702
ち	-9.9703
▁1940	-9.97088
▁Mr	-9.97112
"|	-9.97162
ology	-9.97189
津	-9.97202
▁competed	-9.9721
ラー	-9.97225
▁complete	-9.97255
▁Berlin	-9.97273
jo	-9.97288
▁actors	-9.97353
▁Du	-9.97424
▁Am	-9.9764
ロー	-9.97648
だが	-9.97675
▁hockey	-9.97714
段	-9.97857
pur	-9.97865
▁Fort	-9.97907
福	-9.97918
▁older	-9.97947
▁medal	-9.9796
▁serving	-9.97971
▁sister	-9.97999
▁Special	-9.98004
▁limited	-9.98005
▁Personal	-9.98038
となっている	-9.98095
チーム	-9.98117
▁Little	-9.98129
▁Chi	-9.98138
れ	-9.98174
病	-9.98179
丸	-9.98395
▁Game	-9.9843
▁Swedish	-9.9854
▁terms	-9.98544
min	-9.98551
ez	-9.98555
府	-9.98565
car	-9.98566
沙	-9.98608
▁municipality	-9.98625
▁claimed	-9.98664
▁Republican	-9.98702
▁von	-9.98722
▁Victoria	-9.98749
▁Creek	-9.98785
▁changes	-9.98792
▁create	-9.9884
▁status	-9.98848
▁Jr	-9.9887
▁Over	-9.98927
過	-9.98956
▁Latin	-9.99015
列	-9.99029
になる	-9.99056
株式会社	-9.99062
湖	-9.99095
ship	-9.9914
▁Hospital	-9.99144
她	-9.99146
▁lines	-9.99151
▁Q	-9.99207
▁Williams	-9.99229
▁names	-9.99258
▁recording	-9.99306
▁Te	-9.99344
▁1981	-9.99397
▁engine	-9.9942
▁word	-9.99486
▁ice	-9.99507
▁theory	-9.99546
▁Live	-9.9957
電影	-9.99609
▁review	-9.99712
▁Governor	-9.9973
▁2021,	-9.99738
▁1976	-9.99821
▁Gallery	-9.99842
ance	-9.99851
▁uses	-9.99895
節	-9.99925
▁Sch	-9.99942
▁Medal	-9.99969
社会	-10.0003
▁hours	-10.0004
▁Middle	-10.0012
▁mostly	-10.0016
▁Alexander	-10.0024
▁complex	-10.0029
センター	-10.0034
▁Israel	-10.0035
足	-10.0035
▁supported	-10.0038
▁Dan	-10.0042
便	-10.0042
老	-10.0053
;"	-10.0056
▁turn	-10.006
又	-10.006
▁nine	-10.0061
樹	-10.0069
▁certain	-10.0074
▁personnel	-10.0074
70	-10.0078
▁entire	-10.008
ポ	-10.008
cha	-10.0081
アルバム	-10.0087
▁f	-10.0092
草	-10.0098
▁marriage	-10.0099
▁passed	-10.0101
動	-10.0104
葉	-10.0105
▁Senate	-10.0107
▁sound	-10.011
年には	-10.0114
led	-10.0114
▁des	-10.0129
▁forced	-10.013
歳	-10.0135
ソ	-10.0139
コン	-10.0141
類	-10.0142
▁going	-10.0146
▁Ca	-10.0149
▁presented	-10.0149
idae	-10.0149
>	-10.015
▁2008,	-10.0152
ig	-10.0156
▁communities	-10.0157
sky	-10.0158
41	-10.0159
▁...	-10.0165
▁Korean	-10.0167
▁Corps	-10.0168
▁4,	-10.0169
▁minutes	-10.0169
37	-10.0174
▁prior	-10.0175
青	-10.018
▁meeting	-10.0182
▁policy	-10.0185
vi	-10.0187
▁Oxford	-10.0187
▁response	-10.0192
▁remains	-10.0198
▁shown	-10.0198
▁Their	-10.0201
ッ	-10.021
▁friend	-10.0218
gar	-10.0219
▁Secretary	-10.0225
▁native	-10.0228
▁give	-10.0234
▁expatriate	-10.024
▁particularly	-10.0242
ci	-10.0245
られた	-10.0247
博	-10.0248
ev	-10.0249
▁2009,	-10.0252
ell	-10.026
情	-10.0261
La	-10.0262
end	-10.0273
▁programs	-10.0275
接	-10.0277
▁Three	-10.028
界	-10.028
▁BBC	-10.0281
▁Regiment	-10.0282
▁clubs	-10.0284
▁1974	-10.0286
FC	-10.0292
交通	-10.0292
90	-10.0293
▁overall	-10.0299
▁descent	-10.03
个	-10.0305
▁raised	-10.0309
▁historical	-10.031
言	-10.0317
tu	-10.0323
▁earned	-10.0324
隆	-10.0325
▁1968	-10.0326
▁subsequently	-10.0326
house	-10.0328
意	-10.0335
▁Can	-10.0336
指	-10.0339
▁subject	-10.0349
▁officers	-10.0355
yn	-10.0355
▁increase	-10.0359
技術	-10.036
時代	-10.036
夏	-10.036
▁star	-10.0369
39	-10.0372
▁bass	-10.0374
▁famous	-10.0374
▁regional	-10.0377
恩	-10.038
亞	-10.0384
▁Airport	-10.0385
ho	-10.0389
▁Prize	-10.0398
とも	-10.0405
▁Coast	-10.0406
44	-10.0406
中学校	-10.0408
百	-10.0413
▁del	-10.0419
▁effect	-10.0424
▁1978	-10.0427
學	-10.0431
▁surface	-10.0435
▁energy	-10.0439
▁particular	-10.0444
▁need	-10.0444
▁border	-10.0449
▁income	-10.0455
命	-10.0457
43	-10.046
両	-10.0469
サン	-10.0476
▁longer	-10.0478
▁1975	-10.0483
▁appears	-10.0491
▁Field	-10.0493
zi	-10.0498
▁Tu	-10.0505
客	-10.0508
▁month	-10.052
▁Police	-10.0521
▁Bi	-10.0521
居	-10.0521
崎	-10.053
ker	-10.0531
▁face	-10.0532
▁parents	-10.0535
▁Pa	-10.0536
政治	-10.0543
▁Show	-10.055
主要	-10.0553
que	-10.0562
▁Family	-10.0563
▁fight	-10.0563
▁rate	-10.0565
▁technology	-10.0566
ial	-10.0572
mann	-10.0573
▁helped	-10.0576
▁source	-10.0576
交	-10.058
ラン	-10.0581
style	-10.0582
ven	-10.0584
▁acquired	-10.0588
像	-10.059
▁leaving	-10.0591
管	-10.0593
▁And	-10.0593
ura	-10.0595
▁60	-10.0598
▁Joe	-10.0599
▁failed	-10.0602
▁weeks	-10.0603
po	-10.0603
プロ	-10.0604
ん	-10.0606
▁larger	-10.0606
ara	-10.0613
改	-10.0618
▁composed	-10.0624
▁youth	-10.0628
▁Islands	-10.0628
▁Korea	-10.0636
▁vote	-10.064
net	-10.0646
▁Journal	-10.0651
▁appearances	-10.0653
▁Social	-10.0655
si	-10.0656
▁Free	-10.0657
▁Justice	-10.0657
玉	-10.0662
▁separate	-10.0665
▁assistant	-10.0668
▁在	-10.0675
▁van	-10.0676
▁financial	-10.0678
提供	-10.0678
▁act	-10.0682
っている	-10.0682
▁latter	-10.0685
▁referred	-10.0693
的に	-10.0697
▁Ge	-10.0698
仁	-10.0698
▁Mi	-10.0699
夜	-10.0716
if	-10.072
▁Both	-10.072
▁actress	-10.073
さらに	-10.0733
景	-10.0739
奇	-10.0741
▁meaning	-10.0744
▁room	-10.0747
▁1973	-10.075
oc	-10.0758
war	-10.0761
甲	-10.0763
総	-10.0766
ば	-10.0766
ium	-10.0768
できる	-10.0768
▁awards	-10.077
▁believed	-10.077
bi	-10.0771
▁Duke	-10.0773
▁News	-10.0774
▁middle	-10.0779
▁proposed	-10.0779
▁takes	-10.0784
▁Route	-10.0784
▁出典	-10.0784
国際	-10.0786
▁eastern	-10.0791
音楽	-10.0793
▁Earth	-10.0796
ray	-10.0802
▁baseball	-10.0803
▁oil	-10.0803
▁remaining	-10.0804
▁Premier	-10.0808
▁test	-10.0808
▁editor	-10.0809
瓦	-10.0812
▁Cast	-10.0812
になった	-10.0817
tz	-10.082
▁key	-10.0832
▁Despite	-10.0835
ola	-10.0839
ng	-10.0846
uk	-10.0846
▁Out	-10.0848
▁deal	-10.0849
▁broadcast	-10.0849
康	-10.085
▁care	-10.0859
ani	-10.0863
▁Mc	-10.0864
75	-10.0867
及び	-10.0868
▁call	-10.0868
_	-10.0875
▁Head	-10.0878
▁council	-10.0881
▁promoted	-10.0882
ow	-10.0885
▁der	-10.0888
从	-10.0888
▁Sydney	-10.0893
▁king	-10.0896
all	-10.0897
自由	-10.09
▁1977	-10.0902
▁troops	-10.0907
普	-10.091
シー	-10.091
du	-10.0914
▁starting	-10.092
▁Brazil	-10.0928
▁Books	-10.0929
超	-10.0934
▁cities	-10.0934
▁carried	-10.0937
▁1971	-10.0939
ius	-10.094
対	-10.0947
ou	-10.0948
▁1956	-10.0952
▁Jo	-10.0956
▁bridge	-10.0959
▁offered	-10.096
越	-10.096
▁influence	-10.0962
▁train	-10.0964
年から	-10.0967
▁article	-10.097
IC	-10.0978
▁online	-10.0981
▁themselves	-10.0987
▁attempt	-10.0988
なお	-10.0991
ita	-10.0993
令	-10.0993
▁1964	-10.0994
▁3:	-10.0997
案	-10.1003
▁province	-10.1011
▁Daniel	-10.1016
▁2007,	-10.1018
成立	-10.1021
▁inter	-10.1025
▁(1	-10.1028
トン	-10.1033
▁cultural	-10.1046
ence	-10.1049
我	-10.1051
秀	-10.1052
▁1969	-10.1053
▁Federal	-10.1061
九	-10.1062
領	-10.1073
om	-10.1074
▁Par	-10.1075
tor	-10.1079
▁winner	-10.1083
▁Part	-10.1085
▁Video	-10.1086
▁records	-10.1086
素	-10.1088
▁movie	-10.1092
▁Prime	-10.1093
▁200	-10.1095
线	-10.1099
00	-10.1103
解	-10.111
奥	-10.1113
▁experience	-10.1113
▁Media	-10.1114
低	-10.1115
▁Up	-10.1117
走	-10.1118
▁minor	-10.1118
▁Nations	-10.1134
▁Po	-10.1135
ena	-10.1142
now	-10.1143
参加	-10.1145
▁cross	-10.1148
ギ	-10.1152
we	-10.1158
進行	-10.1158
何	-10.1167
▁dance	-10.1173
▁today	-10.1175
▁got	-10.1177
▁graduated	-10.1192
岩	-10.1195
▁newspaper	-10.1197
出演	-10.1203
lu	-10.1208
美國	-10.121
強	-10.121
率	-10.1213
▁episodes	-10.1213
▁double	-10.1218
▁foreign	-10.122
▁Water	-10.1222
兩	-10.1229
▁Another	-10.1231
hi	-10.1234
▁Bob	-10.1235
伯	-10.1238
特別	-10.1243
▁Santa	-10.1243
▁Region	-10.1246
當	-10.1262
都市	-10.1264
実	-10.1267
希	-10.1269
▁Minnesota	-10.1271
gan	-10.1273
▁specific	-10.1276
陽	-10.1281
▁forms	-10.1281
▁Project	-10.1286
▁silver	-10.1286
▁organizations	-10.129
▁society	-10.1294
▁Si	-10.1302
zh	-10.1302
▁consists	-10.1305
▁Professor	-10.1314
もの	-10.1315
▁Baseball	-10.1316
製作	-10.1317
源	-10.1317
とする	-10.132
▁executive	-10.1324
▁lack	-10.1324
アメリカ	-10.1326
親	-10.133
▁Band	-10.1335
ており	-10.1336
▁tracks	-10.1344
▁conditions	-10.1351
▁news	-10.1353
▁function	-10.1353
▁5,	-10.1355
▁Peak	-10.1356
洋	-10.1356
▁Ten	-10.1359
▁text	-10.1362
hu	-10.1368
49	-10.1369
戰	-10.1374
雅	-10.1375
グループ	-10.1377
vin	-10.1378
ica	-10.138
▁pp	-10.1382
▁Supreme	-10.1383
▁cause	-10.1383
▁variety	-10.1394
▁serve	-10.1397
じ	-10.1397
so	-10.1397
q	-10.1398
▁声	-10.1404
登	-10.1409
▁houses	-10.141
施設	-10.1415
十	-10.1416
しており	-10.1417
其中	-10.142
▁Far	-10.1431
▁fifth	-10.1434
▁Toronto	-10.1434
▁fall	-10.1435
58	-10.1437
高等学校	-10.1441
声	-10.1442
路線	-10.1444
▁metal	-10.1449
數	-10.145
head	-10.145
リーグ	-10.1451
▁transferred	-10.1462
▁candidate	-10.1466
▁Ontario	-10.1467
▁always	-10.147
▁Elizabeth	-10.1471
▁BC	-10.1472
よ	-10.1473
ong	-10.1474
友	-10.1477
アル	-10.1478
系統	-10.1481
state	-10.1494
▁individuals	-10.1495
▁parties	-10.1501
▁mainly	-10.1503
▁pay	-10.1504
sch	-10.1509
▁Ministry	-10.1509
▁Yu	-10.1509
▁done	-10.1514
-2	-10.1515
▁our	-10.1518
賽	-10.1519
▁alongside	-10.1519
▁l	-10.1521
▁despite	-10.1523
▁1967	-10.1523
太郎	-10.1524
▁Power	-10.1526
▁administrative	-10.1528
▁operation	-10.1532
▁issued	-10.1537
切	-10.1537
class	-10.1538
▁direct	-10.1538
51	-10.1541
▁responsible	-10.1545
大學	-10.1549
公園	-10.1558
▁Mike	-10.1564
▁Chris	-10.1568
父	-10.1573
忠	-10.1574
開発	-10.1578
▁Songs	-10.1587
▁Cambridge	-10.159
航空	-10.1594
▁turned	-10.1602
端	-10.1602
▁plans	-10.1603
▁Avenue	-10.1613
▁Iran	-10.1614
設計	-10.1614
▁featuring	-10.1617
▁Technology	-10.1619
去	-10.1621
▁35	-10.1621
関係	-10.1625
▁Winter	-10.163
▁nature	-10.1633
全国	-10.1636
泰	-10.1639
▁extended	-10.1643
岡	-10.1644
▁semi	-10.1644
スター	-10.1647
í	-10.1648
市立	-10.1648
台灣	-10.1653
んだ	-10.1655
▁hospital	-10.1655
200	-10.1659
▁Mexican	-10.1659
▁65	-10.1666
納	-10.1666
pp	-10.1667
▁saying	-10.1668
試合	-10.1669
があり	-10.1673
システム	-10.1673
ap	-10.1682
▁1945	-10.1683
▁Notable	-10.169
▁†	-10.169
▁Bridge	-10.1691
一般	-10.1692
発売	-10.1699
▁soldiers	-10.1701
▁cut	-10.1706
▁might	-10.1708
▁rugby	-10.1709
▁likely	-10.171
▁enough	-10.1716
ii	-10.1719
運動	-10.1722
▁2022,	-10.1732
▁multi	-10.1739
左	-10.1739
▁voice	-10.174
▁leave	-10.1741
▁Wilson	-10.1742
▁elements	-10.1743
ベ	-10.1745
▁Bell	-10.1747
那	-10.1753
▁Wood	-10.1754
ure	-10.1754
▁speed	-10.176
ab	-10.1767
▁crew	-10.1768
▁More	-10.1769
org	-10.177
▁arrived	-10.1771
▁Philadelphia	-10.1774
like	-10.1775
▁here	-10.1779
▁era	-10.1779
▁Corporation	-10.1781
京	-10.1781
つの	-10.1784
▁Ta	-10.179
▁discovered	-10.1792
這	-10.1798
▁Netherlands	-10.1799
har	-10.1801
▁host	-10.1807
47	-10.1808
era	-10.181
ある	-10.1821
すると	-10.1826
▁Stadium	-10.1826
▁32	-10.1828
▁nearly	-10.1828
▁2006,	-10.1833
▁chart	-10.1834
300	-10.1837
落	-10.1839
編曲	-10.1839
赤	-10.1841
▁treatment	-10.1842
55	-10.1843
▁stories	-10.1849
▁heart	-10.1849
▁problems	-10.185
▁value	-10.185
▁provides	-10.1856
さん	-10.1858
ペ	-10.1865
称	-10.1867
製	-10.1871
▁academic	-10.1878
▁participated	-10.1889
権	-10.189
▁nearby	-10.1891
▁Master	-10.1891
km	-10.1894
わ	-10.1899
▁Pakistan	-10.1905
▁recent	-10.191
ula	-10.1916
黒	-10.1918
▁covered	-10.1925
▁Junior	-10.1925
ft	-10.1927
▁heavy	-10.193
▁Wisconsin	-10.1935
town	-10.1945
を持つ	-10.1946
▁Bishop	-10.195
亦	-10.1965
▁Sri	-10.1967
ski	-10.1972
▁coast	-10.1973
▁products	-10.1978
▁vs	-10.1979
ice	-10.1981
▁administration	-10.1985
▁Jim	-10.1987
▁Human	-10.199
ada	-10.1991
▁winners	-10.1994
nes	-10.1999
▁Er	-10.1999
熱	-10.2006
▁Works	-10.2011
▁Tri	-10.2012
▁Good	-10.2013
▁architecture	-10.2015
▁Jackson	-10.2016
▁Castle	-10.2016
罗	-10.2016
▁Network	-10.2017
々	-10.202
▁residents	-10.2022
深	-10.2024
雪	-10.2026
▁told	-10.2028
工作	-10.2032
ud	-10.2032
500	-10.2032
▁Fa	-10.2033
▁Lady	-10.2035
▁directly	-10.204
▁champion	-10.204
back	-10.2041
▁Inc	-10.2044
因此	-10.2048
▁hard	-10.205
▁revealed	-10.2052
▁finally	-10.2053
成為	-10.2054
▁Business	-10.2057
▁USA	-10.2058
▁45	-10.2059
▁label	-10.206
▁ancient	-10.2061
▁makes	-10.2064
▁managed	-10.2064
広	-10.2065
▁6,	-10.2072
01	-10.2074
▁1966	-10.2078
蘭	-10.2078
職	-10.2078
▁channel	-10.2092
▁Medical	-10.2096
yl	-10.2097
ニー	-10.2107
▁letter	-10.2107
▁renamed	-10.2109
速	-10.2109
▁1965	-10.2111
總	-10.2114
▁asked	-10.2122
ano	-10.2136
▁allow	-10.2137
▁Place	-10.2148
▁Light	-10.2148
リン	-10.2152
06	-10.2158
▁primarily	-10.2164
點	-10.2172
▁constructed	-10.2173
若	-10.2173
▁rural	-10.2179
ken	-10.2182
bar	-10.219
▁security	-10.2191
che	-10.2192
配	-10.2193
▁view	-10.2197
協会	-10.2199
マー	-10.2203
奈	-10.2203
64	-10.2204
幸	-10.2204
ā	-10.2205
▁initial	-10.2211
総合	-10.2213
▁rule	-10.2222
▁外部連結	-10.2223
▁musicians	-10.2225
と共に	-10.2233
▁Sweden	-10.2233
▁camp	-10.2233
▁Four	-10.2234
▁table	-10.2237
▁positive	-10.2242
yan	-10.2246
▁whole	-10.225
ensis	-10.2254
▁Community	-10.2255
#	-10.2266
ピ	-10.2272
兼	-10.2274
▁Fire	-10.2277
計画	-10.2278
企業	-10.228
▁whether	-10.2291
▁Captain	-10.2291
一覧	-10.2311
調	-10.2313
▁參考資料	-10.2313
▁wanted	-10.2315
造	-10.2318
▁ISBN	-10.232
道路	-10.2321
▁transport	-10.2322
▁Golden	-10.2323
輪	-10.2326
▁lives	-10.233
▁Ali	-10.233
日の	-10.2335
▁color	-10.2339
my	-10.2343
会社	-10.235
魚	-10.235
円	-10.235
low	-10.2351
▁Also	-10.2356
▁Norwegian	-10.2357
早	-10.2359
▁新	-10.2363
君	-10.2363
van	-10.2365
彦	-10.2366
獲得	-10.2368
more	-10.237
▁build	-10.2374
ette	-10.2375
▁bank	-10.2378
ix	-10.2378
52	-10.238
ised	-10.2384
▁listing	-10.2387
血	-10.2387
▁mission	-10.2388
▁Bibliography	-10.2388
ju	-10.2391
ari	-10.2395
▁background	-10.2396
男子	-10.2396
▁Mal	-10.2398
自己	-10.2399
▁Stephen	-10.2399
▁effects	-10.24
▁mass	-10.2403
艦	-10.2406
03	-10.2409
密	-10.2413
▁Political	-10.2417
坂	-10.2418
層	-10.2419
▁Sal	-10.2421
port	-10.2421
▁System	-10.2423
ea	-10.2424
▁Township	-10.243
▁1928	-10.243
▁Inter	-10.2432
▁1953	-10.2434
▁Sha	-10.2438
▁存命人物	-10.244
それ	-10.2441
▁branch	-10.2442
▁Season	-10.2442
▁computer	-10.2443
[	-10.245
渡	-10.2451
▁Indiana	-10.2452
▁rules	-10.2458
▁Andrew	-10.2459
可能	-10.246
let	-10.2462
祭	-10.2462
ソン	-10.2465
板	-10.2465
65	-10.2465
▁literature	-10.2466
▁sources	-10.2472
▁Studies	-10.2473
大阪	-10.2477
ren	-10.2478
存在	-10.2483
▁1929	-10.2483
living	-10.2483
ね	-10.2495
▁Taylor	-10.2501
▁leaders	-10.2504
▁Ray	-10.2507
▁Pat	-10.2508
▁appear	-10.251
▁idea	-10.2515
に関する	-10.2516
羽	-10.2517
されていた	-10.2522
紀	-10.2524
▁paper	-10.2524
▁Sciences	-10.2527
亚	-10.2543
▁Maria	-10.2547
ひ	-10.2548
US	-10.255
▁k	-10.2551
达	-10.2555
ee	-10.2555
泉	-10.2559
▁Beach	-10.256
▁da	-10.2565
▁conducted	-10.2574
▁words	-10.2578
▁Missouri	-10.258
▁Death	-10.2583
完成	-10.2584
班	-10.2584
▁piano	-10.2585
▁officially	-10.2587
ku	-10.2588
▁master	-10.2591
▁removed	-10.2597
▁End	-10.26
tri	-10.2601
漢	-10.2602
▁medalists	-10.2604
red	-10.2609
▁Arthur	-10.2612
▁Highway	-10.2613
富	-10.2618
▁Francis	-10.2619
▁notable	-10.2622
▁relations	-10.2623
▁planned	-10.2623
▁Forest	-10.2625
▁languages	-10.2625
学院	-10.2629
▁basis	-10.2633
▁grew	-10.2636
▁parish	-10.264
09	-10.2644
能力	-10.2648
86	-10.2654
▁continue	-10.2657
▁levels	-10.2659
少	-10.266
▁Rose	-10.2661
他の	-10.2663
▁square	-10.2665
▁fellow	-10.2665
▁interview	-10.2666
85	-10.2668
▁households	-10.267
▁Ken	-10.2671
53	-10.2671
▁mixed	-10.2684
▁races	-10.2684
▁workers	-10.2688
洛	-10.2689
▁composer	-10.269
敵	-10.2695
总	-10.2695
公開	-10.2697
ped	-10.2698
▁friends	-10.2701
▁1962	-10.2704
▁dedicated	-10.2704
▁1936	-10.2706
▁Han	-10.2709
▁Rome	-10.271
fer	-10.2711
▁Mountain	-10.2711
人口	-10.2715
▁7,	-10.272
mon	-10.2722
これは	-10.2722
▁Col	-10.2723
▁prison	-10.2724
▁scene	-10.2747
▁code	-10.2748
▁Val	-10.2749
▁projects	-10.2751
ホ	-10.2755
▁trial	-10.2763
62	-10.2764
▁ordered	-10.2764
kar	-10.2766
中國	-10.2766
(),	-10.277
▁produce	-10.2771
cy	-10.2771
佐	-10.2771
▁inside	-10.2772
▁defeat	-10.2775
せ	-10.2775
▁Kansas	-10.2777
留	-10.2777
▁prominent	-10.2778
art	-10.2778
▁Ra	-10.2779
▁potential	-10.278
▁Sportspeople	-10.2784
神社	-10.2786
pi	-10.2802
▁Geography	-10.2802
当時	-10.2804
▁1910	-10.2804
▁minister	-10.2804
ise	-10.2806
列車	-10.2812
之一	-10.2814
▁gas	-10.2815
弾	-10.2816
シングル	-10.2817
▁Born	-10.2822
ns	-10.2822
中的	-10.2822
NHK	-10.2823
戦争	-10.2828
▁engineer	-10.2832
▁intended	-10.2833
▁settlement	-10.2842
教授	-10.2842
▁stars	-10.2843
▁Steve	-10.2843
▁direction	-10.2845
助	-10.2853
▁pressure	-10.2859
战	-10.2861
宝	-10.2863
▁growth	-10.2865
▁1963	-10.2867
▁Member	-10.2867
帝国	-10.2874
▁destroyed	-10.2875
ヴィ	-10.2875
モデル	-10.2879
ens	-10.2879
▁Ban	-10.2884
梅	-10.2889
▁floor	-10.289
▁poet	-10.289
▁Class	-10.2891
▁Modern	-10.2892
視	-10.2893
房	-10.2898
右	-10.2899
▁Ti	-10.29
送	-10.2901
異	-10.2903
哈	-10.2908
ring	-10.2909
▁Hu	-10.2913
経済	-10.2918
▁poor	-10.2919
▁capacity	-10.2925
镇	-10.2927
シャ	-10.2929
▁divided	-10.293
出身	-10.2935
tes	-10.2942
▁Brazilian	-10.2944
▁join	-10.2945
▁distribution	-10.2949
其他	-10.2949
▁upper	-10.2954
ず	-10.2956
方面	-10.2959
黑	-10.2964
ó	-10.2964
▁Earl	-10.2971
No	-10.2974
▁numbers	-10.2978
▁follows	-10.2978
stone	-10.2981
シーズン	-10.2988
▁und	-10.299
tion	-10.2997
▁unknown	-10.2997
質	-10.2999
▁flight	-10.3
▁distance	-10.3001
board	-10.3005
毛	-10.3007
▁draw	-10.3009
▁respectively	-10.3021
▁Ed	-10.3022
▁murder	-10.3025
▁Davis	-10.3029
ep	-10.3032
▁作詞	-10.3036
勒	-10.3036
king	-10.3036
▁method	-10.3038
ゲ	-10.3039
两	-10.304
▁1944	-10.3041
エル	-10.3042
年間	-10.3043
ero	-10.3046
▁page	-10.3047
54	-10.3051
▁Atlantic	-10.3051
▁Ya	-10.3056
▁titled	-10.3059
▁solo	-10.3059
最高	-10.3062
▁commonly	-10.3064
▁Kitt	-10.3066
▁(2	-10.307
け	-10.3072
▁pass	-10.3075
▁1927	-10.3081
▁charge	-10.3084
▁software	-10.3086
tal	-10.3086
▁Oregon	-10.3089
▁forward	-10.3089
団	-10.3091
▁1924	-10.3094
;"|	-10.3095
共同	-10.3096
lon	-10.3096
ett	-10.3101
▁smaller	-10.3101
御	-10.3107
精	-10.3111
▁theatre	-10.3112
04	-10.3116
▁Main	-10.3118
▁Gi	-10.3118
▁bar	-10.3119
▁1948	-10.3122
▁Country	-10.3125
07	-10.3126
以上	-10.3127
▁firm	-10.3128
▁18,	-10.313
▁Khan	-10.3133
▁参考资料	-10.3133
ric	-10.3135
▁quickly	-10.3135
▁votes	-10.3136
ジャ	-10.314
▁Colorado	-10.3141
II	-10.3144
ick	-10.3145
×	-10.315
智	-10.3151
才	-10.3157
▁equipment	-10.3167
▁Design	-10.3169
極	-10.317
present	-10.3174
▁pop	-10.3174
▁conference	-10.3179
▁assigned	-10.3179
のため	-10.3181
▁account	-10.3181
給	-10.3186
ナー	-10.3188
敗	-10.319
▁activity	-10.3193
her	-10.3195
▁1958	-10.3198
▁Results	-10.3198
▁articles	-10.3203
利用	-10.3206
ris	-10.3207
▁Turkey	-10.3207
處	-10.3207
08	-10.3209
▁facilities	-10.3209
▁hosted	-10.321
▁format	-10.3212
▁8,	-10.3213
▁Populated	-10.3215
期間	-10.3217
▁Fox	-10.3217
▁purchased	-10.3217
▁stone	-10.3217
の選手	-10.3218
所属	-10.3218
ach	-10.3219
差	-10.3221
ラジオ	-10.3221
▁immediately	-10.3222
98	-10.3224
▁figure	-10.3226
高校	-10.3228
科学	-10.3228
▁Foreign	-10.3236
▁1931	-10.3237
▁physical	-10.3238
ide	-10.3241
結果	-10.3243
▁10,	-10.3244
レイ	-10.3245
▁hold	-10.3253
。「	-10.3256
園	-10.3264
▁highly	-10.3267
▁partner	-10.3274
▁museum	-10.3276
▁historic	-10.328
現在の	-10.3282
のは	-10.3282
New	-10.3286
浦	-10.3295
▁Rugby	-10.3299
*	-10.3304
▁estate	-10.3306
2019	-10.3307
ファ	-10.3315
ram	-10.3317
这	-10.3317
57	-10.3317
▁programming	-10.3318
illa	-10.332
▁cancer	-10.3321
fa	-10.3321
▁Ku	-10.3321
▁captured	-10.3322
介	-10.3322
▁cell	-10.3323
販売	-10.3324
▁Ex	-10.3328
ative	-10.3328
▁reviews	-10.333
び	-10.3336
▁institutions	-10.334
▁Lewis	-10.3341
▁Kim	-10.3345
▁(16	-10.3346
▁Arizona	-10.3346
▁24,	-10.3347
▁efforts	-10.3349
▁Will	-10.3351
▁founder	-10.3351
ことを	-10.3353
▁green	-10.3353
環境	-10.3354
▁Representatives	-10.3356
▁documentary	-10.3358
▁agreement	-10.3358
ay	-10.336
over	-10.336
雨	-10.3361
▁moving	-10.3362
陳	-10.3363
リア	-10.3367
クラブ	-10.3368
▁mm	-10.3369
▁housing	-10.3373
▁Boy	-10.3374
▁accepted	-10.3375
iz	-10.3385
多くの	-10.3388
fefef	-10.3389
▁travel	-10.3389
防	-10.3391
▁yet	-10.3392
系列	-10.3395
帝	-10.3404
▁stop	-10.3404
▁press	-10.3406
▁novels	-10.3411
88	-10.3414
▁focus	-10.3416
ning	-10.3418
▁1961	-10.3419
▁ability	-10.3421
▁Federation	-10.3422
いる	-10.3424
▁Philippines	-10.343
▁1955	-10.3433
qui	-10.3433
研究所	-10.3434
▁amount	-10.3435
95	-10.3439
▁Cha	-10.344
▁2005,	-10.3442
ok	-10.3447
に対して	-10.3449
そして	-10.3456
楽	-10.3457
▁Norway	-10.3458
部隊	-10.3459
华	-10.3461
▁1900	-10.3461
▁1922	-10.3467
殺	-10.3469
▁Tim	-10.3469
▁operating	-10.3473
通り	-10.3474
▁lies	-10.3474
曼	-10.3474
wan	-10.3476
唐	-10.3481
▁declared	-10.3483
▁mountain	-10.3487
▁Arab	-10.3488
▁confirmed	-10.3489
▁owner	-10.3494
▁Before	-10.3497
len	-10.3503
、2	-10.3504
▁approach	-10.351
最終	-10.3514
▁Bal	-10.3519
▁$	-10.352
▁faculty	-10.3521
成功	-10.3521
正式	-10.3523
▁Simon	-10.3524
報	-10.3525
▁digital	-10.3527
▁plants	-10.3528
第三	-10.353
▁needed	-10.3531
▁leadership	-10.3533
▁territory	-10.3535
戸	-10.3539
▁Entertainment	-10.354
▁disease	-10.354
▁giving	-10.3545
ries	-10.3546
▁store	-10.3547
發	-10.355
▁platform	-10.3553
▁Memorial	-10.3553
Le	-10.3554
▁types	-10.3557
▁organized	-10.3577
ぶ	-10.3577
▁Tennessee	-10.3579
▁2010.	-10.3583
▁1959	-10.3583
▁titles	-10.3587
▁leaves	-10.3592
ria	-10.3593
っ	-10.3593
所有	-10.3593
▁reach	-10.3596
72	-10.36
▁fish	-10.3601
ベル	-10.3606
美国	-10.3612
▁$1	-10.3612
ット	-10.3613
2010	-10.3613
▁compared	-10.3614
▁journalist	-10.3616
▁Sar	-10.362
遠	-10.362
语	-10.362
澤	-10.3622
竹	-10.3622
▁Walter	-10.3622
tan	-10.3623
▁attention	-10.3624
▁estimated	-10.3627
▁Review	-10.3629
伝	-10.363
▁Albert	-10.3632
▁Ja	-10.3634
▁spring	-10.3635
▁bronze	-10.3636
▁1952	-10.3639
▁1923	-10.3641
または	-10.3643
▁suffered	-10.3644
▁keep	-10.3644
▁surrounding	-10.3646
▁captain	-10.3649
78	-10.3651
担当	-10.3654
▁becomes	-10.3659
▁blood	-10.3659
air	-10.3661
59	-10.3666
▁Win	-10.3669
▁damage	-10.3672
▁Sources	-10.3672
▁wall	-10.3681
gu	-10.3682
▁concept	-10.3683
pt	-10.3687
自然	-10.3688
sha	-10.369
▁1912	-10.3691
英語	-10.3696
▁adopted	-10.3697
▁1925	-10.3698
封	-10.3704
▁11,	-10.3706
▁Ki	-10.3707
▁Carl	-10.3709
▁Cape	-10.3711
tro	-10.3712
2016	-10.3719
68	-10.372
▁Kar	-10.3722
▁Ro	-10.3723
▁Christ	-10.3724
ff	-10.3726
こう	-10.3733
▁product	-10.3733
▁agreed	-10.3734
cho	-10.3734
よう	-10.3736
▁Each	-10.3741
▁analysis	-10.3741
▁Production	-10.3741
▁creation	-10.3744
▁models	-10.3747
▁1926	-10.3747
▁sites	-10.3748
▁Czech	-10.3749
▁1921	-10.3749
▁Space	-10.375
迪	-10.375
▁Round	-10.3751
失	-10.3753
▁Op	-10.3754
row	-10.3754
▁split	-10.3757
▁Squadron	-10.3759
▁Engineering	-10.3759
豊	-10.3764
▁Not	-10.3767
ich	-10.3777
▁Background	-10.378
▁teacher	-10.3781
▁finish	-10.3784
▁1947	-10.3785
紅	-10.3786
▁engineering	-10.3791
▁squad	-10.3791
▁80	-10.3791
▁1942	-10.3792
骨	-10.3793
人間	-10.3795
▁occurred	-10.38
說	-10.38
▁combined	-10.3801
▁Camp	-10.3806
ビル	-10.3813
▁Point	-10.3817
住	-10.3817
萬	-10.382
▁comes	-10.3823
旅	-10.3824
ye	-10.3829
影	-10.3837
▁1935	-10.3838
建築	-10.3838
貴	-10.384
〉	-10.384
▁Jews	-10.3841
▁seats	-10.3849
▁1943	-10.3853
-3	-10.3855
独立	-10.3856
▁acting	-10.3856
とともに	-10.3857
嘉	-10.3858
▁Melbourne	-10.3861
▁positions	-10.3863
昌	-10.3864
▁Sh	-10.3871
ala	-10.3871
訳	-10.3874
–17	-10.3876
▁percent	-10.3879
▁Maryland	-10.3881
把	-10.3881
作家	-10.389
▁Sub	-10.3891
特に	-10.3892
▁widely	-10.3894
▁Moscow	-10.3903
▁cars	-10.3904
▁36	-10.3912
劇場	-10.3913
pro	-10.3913
▁1949	-10.3914
▁2:	-10.3915
雲	-10.3915
側	-10.3915
▁largely	-10.3915
▁Cal	-10.3917
2007	-10.3919
▁Management	-10.392
▁gun	-10.393
ps	-10.3932
▁Tar	-10.3935
Al	-10.3938
▁blue	-10.3939
▁Tokyo	-10.3942
アー	-10.3943
▁Like	-10.3944
▁urban	-10.3945
ities	-10.3946
ダー	-10.395
▁job	-10.3951
▁sign	-10.3963
思	-10.3963
án	-10.3964
2006	-10.3966
企画	-10.3966
行動	-10.3967
▁resulted	-10.3967
▁Austria	-10.3968
99	-10.3971
▁content	-10.3973
決定	-10.3975
▁classical	-10.3982
宇宙	-10.3985
延	-10.3987
▁4:	-10.3989
▁mentioned	-10.3991
bu	-10.3991
▁street	-10.3993
結	-10.3993
したが	-10.3994
56	-10.3995
酒	-10.3996
▁Due	-10.3997
)」	-10.3997
演	-10.3998
レン	-10.4001
▁painting	-10.4002
▁Miss	-10.4002
▁crime	-10.4003
开	-10.4005
▁quality	-10.4007
▁Professional	-10.4007
ane	-10.4008
▁gained	-10.4009
銀行	-10.401
▁→	-10.4011
97	-10.4013
▁remain	-10.4014
▁probably	-10.4015
▁governor	-10.4016
フランス	-10.4016
▁mayor	-10.4017
▁1941	-10.4018
▁1957	-10.402
▁couple	-10.4024
2011	-10.4024
ai	-10.4024
63	-10.4027
▁Ukraine	-10.4027
車両	-10.403
▁se	-10.4032
▁politics	-10.4033
▁chairman	-10.4035
徳	-10.4037
末	-10.404
▁typically	-10.4041
▁meet	-10.4042
▁Queensland	-10.4045
支	-10.4048
law	-10.4051
▁towns	-10.4053
▁yards	-10.4059
カル	-10.406
地球	-10.406
▁fell	-10.4064
▁Ber	-10.4064
▁Commonwealth	-10.4068
善	-10.407
▁expected	-10.4072
ors	-10.4075
▁9,	-10.4078
▁Hot	-10.4079
▁DVD	-10.4086
▁fiction	-10.409
▁presence	-10.4091
秋	-10.4098
▁concert	-10.4098
▁(3	-10.4099
▁therefore	-10.41
uri	-10.4101
▁500	-10.4104
SP	-10.4104
▁Pi	-10.4106
季	-10.4106
獎	-10.4106
su	-10.4107
▁females	-10.4108
▁nominated	-10.4109
ward	-10.411
ドラマ	-10.4112
▁Ci	-10.4115
▁identified	-10.4117
96	-10.4122
机	-10.4123
▁block	-10.4125
▁Wall	-10.4127
▁※	-10.4134
歌手	-10.4135
ery	-10.4137
程	-10.4138
▁break	-10.4138
▁roles	-10.414
▁15,	-10.4142
▁Spacewatch	-10.4142
纳	-10.4143
▁33	-10.4146
书	-10.4147
▁Israeli	-10.4149
tre	-10.415
▁1954	-10.4151
dar	-10.4152
を行う	-10.4152
disambiguation	-10.4158
夢	-10.4158
警察	-10.4159
yo	-10.4159
light	-10.4164
▁Iowa	-10.4169
处	-10.4174
can	-10.4177
▁contemporary	-10.4178
放	-10.4179
丁	-10.418
▁1933	-10.4182
▁spread	-10.4183
▁Regional	-10.4187
66	-10.4187
瀬	-10.4187
▁1932	-10.4188
▁serves	-10.4189
▁2011.	-10.4189
出場	-10.4189
▁critical	-10.4192
鎮	-10.4192
▁recognized	-10.4193
▁coming	-10.4202
▁problem	-10.4203
維	-10.4204
城市	-10.4204
横	-10.4207
▁clear	-10.4207
付	-10.4208
lar	-10.4209
▁Marine	-10.421
▁impact	-10.421
▁70	-10.4214
▁Liberal	-10.4215
具	-10.4216
▁Harry	-10.4218
▁committee	-10.4224
61	-10.4225
少年	-10.4228
オー	-10.423
▁drums	-10.424
▁dead	-10.4246
77	-10.4247
▁Turkish	-10.4251
▁Mad	-10.4253
Co	-10.4256
ほか	-10.4256
望	-10.4257
▁true	-10.4257
02	-10.4259
攻撃	-10.4259
▁1946	-10.4268
▁Sound	-10.4268
▁risk	-10.427
▁Ph	-10.427
ag	-10.4276
▁Fu	-10.4277
▁Bur	-10.4279
設立	-10.4282
▁tax	-10.4284
▁14,	-10.4289
▁promotion	-10.4289
機能	-10.4292
フィ	-10.4292
wing	-10.4293
▁Ukrainian	-10.4294
▁miles	-10.4296
▁Kentucky	-10.4299
▁image	-10.4301
▁Anderson	-10.4302
▁educated	-10.4306
▁2014.	-10.431
▁districts	-10.4327
ライブ	-10.4328
▁recently	-10.4328
▁1934	-10.4331
▁scoring	-10.4333
經	-10.4334
大正	-10.4336
▁2012.	-10.4338
通常	-10.4339
▁expanded	-10.4339
費	-10.434
87	-10.434
▁Miller	-10.4341
▁share	-10.4342
”,	-10.4343
▁exchange	-10.4344
▁Sunday	-10.4347
ator	-10.435
▁cells	-10.4351
画	-10.4351
遊	-10.4353
からは	-10.4355
▁Lemmon	-10.4356
▁Sky	-10.436
▁1939	-10.4361
▁Vietnam	-10.4363
▁performances	-10.4365
▁2013.	-10.4368
▁difficult	-10.4369
▁Stone	-10.437
悪	-10.4371
鉄	-10.4372
展	-10.4376
▁Christmas	-10.4381
400	-10.4382
退	-10.4385
▁climate	-10.4386
▁2009.	-10.4386
▁12,	-10.4387
ida	-10.4388
往	-10.4391
res	-10.4404
▁prevent	-10.4407
▁ranked	-10.4408
サービス	-10.4408
▁granted	-10.4412
▁resulting	-10.4416
▁median	-10.4419
リング	-10.4419
▁Mel	-10.4421
記録	-10.4423
▁secondary	-10.4426
倉	-10.4427
優勝	-10.4427
value	-10.4428
▁conflict	-10.443
89	-10.4431
▁Revolution	-10.4432
ip	-10.4435
▁Area	-10.4437
▁Swiss	-10.4437
05	-10.4437
nan	-10.4445
轉	-10.445
”。	-10.4451
top	-10.4452
▁losing	-10.4453
▁newly	-10.4453
ros	-10.4454
▁Tony	-10.446
エン	-10.4462
▁t	-10.4462
塞	-10.4463
▁starring	-10.447
油	-10.4472
一个	-10.4473
タイ	-10.4477
▁reduced	-10.4478
ize	-10.4484
只	-10.4484
劇	-10.4484
時期	-10.4488
▁Real	-10.4491
稱	-10.4494
▁taught	-10.4496
▁Among	-10.4496
▁tree	-10.4497
月号	-10.4497
▁y	-10.4503
not	-10.4503
▁Affairs	-10.4504
カン	-10.4505
▁Survey	-10.4508
傳	-10.4508
▁origin	-10.4509
▁commander	-10.451
▁Ocean	-10.4511
ping	-10.4511
▁billion	-10.4513
车	-10.4518
▁Pe	-10.4518
▁villages	-10.4519
と呼ばれる	-10.4519
▁felt	-10.4521
▁2015.	-10.4523
▁Ad	-10.4523
FM	-10.4528
tel	-10.4528
▁Bu	-10.453
2000	-10.4531
歲	-10.4534
▁stand	-10.4536
▁buried	-10.4538
2018	-10.4539
zo	-10.4539
▁EP	-10.4541
▁Danish	-10.4543
断	-10.4543
一個	-10.4543
▁defense	-10.4544
▁34	-10.4546
门	-10.455
▁Greece	-10.4553
弘	-10.4556
▁1913	-10.4556
チャ	-10.4557
▁Emperor	-10.4561
rie	-10.4561
工業	-10.4566
▁authorities	-10.4567
▁profile	-10.4569
鬼	-10.4569
▁Fame	-10.4572
TBS	-10.4579
皮	-10.458
▁Dar	-10.4581
置	-10.4581
としては	-10.4584
▁Portuguese	-10.4584
▁Billboard	-10.4586
▁Anti	-10.4587
▁Former	-10.4591
ding	-10.4593
sort	-10.4597
▁traffic	-10.4598
興	-10.4599
られる	-10.4599
▁n	-10.4599
▁begins	-10.4608
魔	-10.4611
FA	-10.4613
藤	-10.4615
▁offers	-10.4617
托	-10.4619
▁knowledge	-10.4624
istic	-10.4625
▁except	-10.4626
它	-10.4628
▁Anne	-10.4631
▁younger	-10.4634
▁sex	-10.4634
▁Bel	-10.4639
▁formation	-10.464
SA	-10.4642
▁arts	-10.4643
ヌ	-10.4645
庄	-10.4648
▁quarter	-10.4648
▁Ash	-10.4652
新聞	-10.4654
www	-10.4656
方法	-10.4656
▁Anna	-10.4656
病院	-10.4657
oni	-10.4658
Ma	-10.4659
场	-10.466
▁Channel	-10.4663
▁unique	-10.4665
底	-10.4665
▁Bre	-10.4667
tus	-10.467
邦	-10.4672
▁receive	-10.4675
▁‘	-10.4676
▁Infantry	-10.4677
ビー	-10.4683
喜	-10.4686
张	-10.4687
▁Mor	-10.4689
▁dark	-10.4693
无	-10.4695
▁rail	-10.4695
キャラクター	-10.4696
▁Austrian	-10.4697
din	-10.4699
▁draft	-10.47
ただし	-10.4703
委員会	-10.4704
▁2008.	-10.4706
▁13,	-10.471
eh	-10.4713
▁1951	-10.4713
▁Brian	-10.4715
)4	-10.4716
▁twice	-10.4729
use	-10.4733
日発売	-10.4733
▁sales	-10.4733
yard	-10.4736
▁scientific	-10.4744
▁1914	-10.4744
▁campus	-10.4749
に対する	-10.4751
▁Holy	-10.4752
海軍	-10.4752
▁Hi	-10.4754
▁Senior	-10.4759
lis	-10.476
▁Bor	-10.4761
▁officials	-10.4763
ón	-10.4764
黄	-10.4766
▁Naval	-10.4772
val	-10.4773
引	-10.4773
を受け	-10.4776
which	-10.4776
核	-10.4777
69	-10.4779
83	-10.4784
also	-10.4785
▁wing	-10.4785
▁port	-10.4785
については	-10.4789
演出	-10.4789
席	-10.479
▁1911	-10.4792
tur	-10.4794
▁suggested	-10.4797
▁Between	-10.4797
▁alternative	-10.4798
79	-10.4798
▁purpose	-10.4799
ガン	-10.4799
▁Ve	-10.48
ene	-10.48
▁transfer	-10.4804
▁critics	-10.4806
アニメ	-10.4808
▁sportspeople	-10.4809
指定	-10.481
▁Hal	-10.4811
カード	-10.4812
▁Ross	-10.4813
▁winter	-10.4815
日から	-10.4815
▁kept	-10.4816
▁2007.	-10.4816
76	-10.4817
政策	-10.482
産	-10.482
▁1937	-10.4823
▁Manchester	-10.4823
▁17,	-10.4824
▁2004,	-10.483
▁providing	-10.4832
建設	-10.4833
▁surname	-10.4838
▁historian	-10.4838
74	-10.4839
▁Ham	-10.4839
他的	-10.4843
▁festival	-10.4845
burg	-10.4846
▁Cat	-10.4846
▁racing	-10.4851
▁coaches	-10.4854
順	-10.4857
▁honor	-10.486
▁inspired	-10.4861
see	-10.4865
鳥	-10.4866
▁Egypt	-10.4867
ロン	-10.4868
▁Temple	-10.4869
▁judge	-10.4871
郎	-10.4871
池	-10.4877
典	-10.4879
位于	-10.4882
▁Ch	-10.4883
▁attacks	-10.4885
▁90	-10.4887
学生	-10.4887
▁Singapore	-10.4891
▁arrested	-10.4896
後の	-10.4902
イベント	-10.4905
▁Ju	-10.4914
▁Native	-10.4914
▁Die	-10.4915
▁Oklahoma	-10.4916
▁Allen	-10.4925
▁Battalion	-10.4926
▁IV	-10.4933
队	-10.4935
▁etc	-10.4935
▁Adam	-10.4936
▁painter	-10.4936
▁Philip	-10.4941
▁Third	-10.4941
▁injury	-10.495
▁tower	-10.495
▁COVID	-10.495
▁marked	-10.4951
▁principal	-10.4951
▁claims	-10.4954
▁Matt	-10.4955
▁Max	-10.4956
▁actually	-10.4959
ika	-10.4961
飛	-10.4963
SC	-10.4963
▁2017.	-10.4964
▁Mu	-10.4966
▁bus	-10.4972
-4	-10.4973
学者	-10.4973
快	-10.4974
▁Hotel	-10.4975
▁mis	-10.4985
▁Magazine	-10.4986
▁Culture	-10.4987
▁showed	-10.4988
ins	-10.4996
▁Story	-10.4997
罪	-10.4997
▁Back	-10.4999
▁cannot	-10.5002
▁notes	-10.5004
られ	-10.5006
▁Cu	-10.5008
fi	-10.5009
▁1908	-10.5009
▁w	-10.5011
▁*	-10.5012
▁super	-10.5013
私	-10.5015
網	-10.5017
▁NCAA	-10.5019
We	-10.5021
支援	-10.5031
▁effort	-10.5032
▁Lieutenant	-10.5032
▁versions	-10.5033
▁28,	-10.5038
想	-10.5042
▁22,	-10.5047
▁Services	-10.5049
▁formerly	-10.505
▁entry	-10.5051
▁obtained	-10.5059
ヘ	-10.5061
▁Prix	-10.5063
Mo	-10.5063
提	-10.5067
▁Switzerland	-10.5067
▁nation	-10.5069
▁Ram	-10.507
件	-10.5071
▁£	-10.5073
▁Howard	-10.5073
メンバー	-10.5076
▁know	-10.5077
▁says	-10.5083
track	-10.5084
ハイ	-10.5087
▁environment	-10.5087
long	-10.5087
印	-10.5087
▁sixth	-10.5088
階	-10.5089
▁sp	-10.5089
▁tried	-10.509
▁Historical	-10.5091
▁statistics	-10.5094
▁peace	-10.5097
ジュ	-10.5097
方式	-10.5098
同時	-10.5099
っていた	-10.51
柳	-10.51
▁paid	-10.5103
▁library	-10.5105
▁FM	-10.5105
製造	-10.5106
位於	-10.5106
ae	-10.5107
▁figures	-10.5107
▁Building	-10.511
直接	-10.5111
家族	-10.5111
▁1917	-10.5111
車站	-10.5114
2020	-10.5115
kan	-10.5115
▁connected	-10.5119
▁density	-10.5119
nie	-10.5131
健	-10.5134
▁vol	-10.5138
▁vehicles	-10.5138
Man	-10.514
▁Ltd	-10.5142
尚	-10.5145
合併	-10.5146
▁develop	-10.5148
銀	-10.5148
▁Shi	-10.515
▁30,	-10.5151
▁pair	-10.5155
威	-10.5156
矢	-10.5159
工程	-10.5159
▁Buildings	-10.516
ec	-10.516
ふ	-10.5162
2014	-10.5162
▁Children	-10.5163
▁succeeded	-10.5164
ご	-10.5167
dal	-10.517
ub	-10.5173
▁twenty	-10.5173
▁Your	-10.5174
师	-10.5174
wi	-10.5175
–7	-10.5175
▁visit	-10.5179
mb	-10.5181
▁16,	-10.5182
▁regions	-10.5182
▁19,	-10.5185
均	-10.5186
國家	-10.5187
▁trains	-10.5187
▁offer	-10.5194
▁headquarters	-10.5194
要求	-10.5194
▁existing	-10.5195
▁25,	-10.5196
▁Way	-10.5201
場所	-10.5201
▁26,	-10.5203
CM	-10.5203
▁publication	-10.5204
▁2016.	-10.5207
vis	-10.5209
個人	-10.5209
》(	-10.521
▁Alabama	-10.5211
▁Harvard	-10.5212
▁Silver	-10.5212
▁designated	-10.5213
時に	-10.5213
▁killing	-10.5215
現在	-10.5215
发	-10.5216
84	-10.5217
▁Brigade	-10.5217
▁continues	-10.5219
▁bio	-10.5222
▁23,	-10.5222
▁opposition	-10.5223
▁growing	-10.5226
▁Dis	-10.5228
▁ca	-10.5229
▁@	-10.5229
An	-10.523
▁fully	-10.5231
▁situation	-10.5233
▁Vi	-10.5237
tis	-10.5239
▁Reception	-10.5246
▁greater	-10.5247
▁Singles	-10.5248
sson	-10.5251
ヴァ	-10.5251
oon	-10.5253
2013	-10.5253
▁Security	-10.5256
だけ	-10.5259
▁Heart	-10.5264
形式	-10.5264
ible	-10.5264
2012	-10.5265
▁guest	-10.5267
▁industrial	-10.5269
なく	-10.5271
もある	-10.5272
▁Age	-10.5276
73	-10.5278
服	-10.5278
del	-10.528
学園	-10.5286
ü	-10.5287
▁girl	-10.5288
▁pilot	-10.529
パー	-10.5291
▁stock	-10.5292
▁Cor	-10.5302
▁electric	-10.5304
▁musician	-10.5306
ase	-10.5309
▁Forces	-10.5309
▁applied	-10.531
ゼ	-10.5311
関	-10.5317
▁fighting	-10.532
音樂	-10.5325
除	-10.5328
ions	-10.5332
▁allows	-10.5334
俊	-10.5336
▁小	-10.5337
参	-10.5338
▁read	-10.5339
説	-10.5343
平方公里	-10.5343
This	-10.5352
od	-10.5353
因為	-10.5354
▁歴史	-10.5357
▁Mountains	-10.5358
▁Labour	-10.5359
▁kind	-10.536
▁Plot	-10.5361
OS	-10.5362
なかった	-10.5364
ese	-10.5365
▁allowing	-10.5366
丹	-10.5366
票	-10.5368
ama	-10.5368
追	-10.537
ホール	-10.5374
姆	-10.5376
ky	-10.5377
▁teaching	-10.5377
▁Ford	-10.5377
▁reports	-10.5378
82	-10.5382
とした	-10.5384
▁Douglas	-10.5387
持	-10.539
妻	-10.539
▁materials	-10.5391
colspan	-10.5392
▁Argentina	-10.5395
▁classes	-10.5395
▁Para	-10.5396
▁deep	-10.5397
ston	-10.54
▁joint	-10.5401
浜	-10.5401
▁Fe	-10.5405
▁Information	-10.5406
孝	-10.541
モン	-10.541
制度	-10.5413
▁Today	-10.5414
▁Internet	-10.5415
ability	-10.5418
砲	-10.5421
ック	-10.5422
牛	-10.5422
▁temple	-10.5423
▁Connecticut	-10.5424
植物	-10.5424
還	-10.5425
資料	-10.5429
▁feet	-10.5429
▁Doctor	-10.5429
our	-10.5429
▁27,	-10.5429
▁opera	-10.5432
ū	-10.5433
▁bi	-10.5439
▁Mass	-10.5439
部門	-10.5439
▁2019.	-10.5445
▁reference	-10.5448
誌	-10.5448
▁中国	-10.5449
▁defined	-10.5451
調査	-10.5452
eri	-10.5452
▁horse	-10.5453
】	-10.5456
ä	-10.5457
▁protection	-10.5461
ジェ	-10.5466
主義	-10.547
iya	-10.5477
▁tells	-10.5481
▁38	-10.5481
season	-10.5486
▁brand	-10.5487
機関	-10.5489
建立	-10.5489
ファン	-10.5489
mel	-10.5491
▁Because	-10.5497
物語	-10.5499
短	-10.5501
▁Basketball	-10.5501
▁Champions	-10.5502
▁2000,	-10.5504
▁portion	-10.5505
note	-10.5506
屬	-10.5512
pan	-10.5513
ランド	-10.5517
」、「	-10.552
兰	-10.5521
ドイツ	-10.5524
▁Hungarian	-10.5524
izing	-10.5526
▁sexual	-10.5526
▁Nick	-10.5527
▁architect	-10.5527
▁goes	-10.5528
▁advanced	-10.5531
▁big	-10.5531
南部	-10.5534
!!	-10.5534
lic	-10.5536
约	-10.5538
技	-10.5541
内容	-10.5547
2008	-10.555
▁Va	-10.5561
▁rank	-10.5564
par	-10.5565
北海道	-10.5566
▁Transport	-10.5569
篇	-10.557
▁wins	-10.557
ISBN	-10.5571
▁Hamilton	-10.5576
tin	-10.5576
ington	-10.5578
投	-10.5579
▁returning	-10.5579
▁safety	-10.558
▁singers	-10.5581
▁box	-10.5584
san	-10.5584
▁gives	-10.5584
shi	-10.5585
▁oldest	-10.5586
▁37	-10.5586
▁Anthony	-10.5588
索	-10.5594
▁forest	-10.5595
uch	-10.5595
▁look	-10.5595
开始	-10.5595
aw	-10.5598
余	-10.5603
▁Test	-10.5603
させる	-10.5604
▁aired	-10.5605
▁x	-10.5609
▁drive	-10.5609
ほど	-10.5613
oli	-10.5614
▁extra	-10.5618
▁hall	-10.5618
▁sport	-10.5618
娘	-10.5619
▁follow	-10.5624
▁lyrics	-10.5624
ことから	-10.5629
女優	-10.5641
▁(4	-10.5642
離	-10.5644
▁global	-10.5647
朱	-10.565
PS	-10.5651
▁Il	-10.5652
▁weight	-10.5653
破	-10.5656
▁Clark	-10.5658
▁sense	-10.566
盛	-10.566
▁Description	-10.5663
▁Vice	-10.5665
▁agent	-10.5665
ぎ	-10.5667
▁Mer	-10.5668
▁2018.	-10.5669
▁combat	-10.567
dis	-10.5671
2009	-10.5671
▁Juan	-10.5673
▁roof	-10.5675
▁tradition	-10.5676
▁managers	-10.5677
ph	-10.5679
デビュー	-10.5681
known	-10.5686
died	-10.5687
rin	-10.5687
▁vice	-10.5688
dan	-10.5694
故	-10.5705
週	-10.5707
▁Frederick	-10.5708
陸軍	-10.5709
▁castle	-10.5709
▁royal	-10.5711
▁Os	-10.5714
ical	-10.5715
▁Del	-10.5715
▁expansion	-10.5718
テン	-10.5722
完全	-10.5722
計	-10.5723
▁Independent	-10.5724
ile	-10.5724
▁Denmark	-10.5724
▁Eric	-10.5727
▁lake	-10.5729
pin	-10.5729
▁domestic	-10.5729
奧	-10.573
艾	-10.5732
92	-10.5733
》,	-10.5735
ために	-10.5737
一部	-10.5737
▁1918	-10.5739
▁29,	-10.5739
▁Bus	-10.5739
▁Square	-10.574
▁Pu	-10.5741
▁Patrick	-10.5746
秒	-10.5748
パン	-10.575
▁facility	-10.5752
▁chosen	-10.5752
▁Ru	-10.5755
cher	-10.5756
▁Za	-10.5756
バン	-10.5756
旗	-10.5758
▁failure	-10.5758
▁completely	-10.5759
ious	-10.5759
▁audience	-10.576
▁vehicle	-10.5764
團	-10.5764
2015	-10.5772
▁Youth	-10.5773
▁Quebec	-10.5774
▁Ann	-10.5777
-6	-10.5779
薬	-10.5782
▁farm	-10.5782
▁Albums	-10.5784
▁NFL	-10.5785
JR	-10.5786
照	-10.5786
廃止	-10.5789
のために	-10.5789
蔵	-10.5791
支持	-10.5792
▁alone	-10.5795
▁necessary	-10.5796
たち	-10.5797
2021	-10.5799
point	-10.5802
▁bought	-10.5806
▁subsequent	-10.5807
water	-10.5812
▁Several	-10.5813
cm	-10.5814
▁frequently	-10.5817
▁東京	-10.582
▁Rural	-10.5823
67	-10.5823
▁Mississippi	-10.5823
▁1906	-10.5824
▁Down	-10.5828
▁About	-10.5829
bit	-10.5829
dale	-10.5831
▁settled	-10.5833
mp	-10.5834
たい	-10.5836
▁Muslim	-10.5837
▁things	-10.5839
人民	-10.5841
シン	-10.5843
▁21,	-10.5844
▁Alan	-10.5848
ながら	-10.5851
果	-10.5851
▁Les	-10.5851
St	-10.5856
▁42	-10.5857
ug	-10.5858
▁situated	-10.586
同じ	-10.5862
nu	-10.5863
▁secret	-10.5866
▁piece	-10.5868
▁supply	-10.5869
▁stay	-10.587
▁1890	-10.5871
▁equal	-10.5874
以下	-10.5874
成績	-10.5875
ō	-10.5878
▁Sand	-10.5878
2017	-10.5879
▁Academic	-10.588
▁Pra	-10.5881
▁Detroit	-10.5881
▁animals	-10.5882
▁protect	-10.5883
cu	-10.5884
▁Belgium	-10.5884
▁condition	-10.5886
▁broke	-10.5887
▁Stage	-10.5887
藩	-10.589
黃	-10.5894
▁Sport	-10.5894
ble	-10.5895
▁simple	-10.5898
バンド	-10.5898
冠	-10.5899
▁simply	-10.5901
▁rear	-10.5902
2005	-10.5904
加入	-10.5907
Ha	-10.5908
最大	-10.5908
▁Local	-10.5913
▁leg	-10.5917
▁attempted	-10.5917
▁exhibition	-10.5918
面積	-10.5921
▁Samuel	-10.5922
▁Player	-10.5923
▁machine	-10.5926
瑞	-10.5928
▁bring	-10.5928
维	-10.5929
▁fuel	-10.5931
▁Houston	-10.5933
kh	-10.5936
▁theme	-10.5938
境	-10.5939
94	-10.594
▁Jay	-10.5941
MA	-10.5942
▁claim	-10.5942
動物	-10.5942
71	-10.5942
▁morning	-10.5946
デザイン	-10.595
▁escape	-10.5952
沒有	-10.5954
▁wood	-10.5956
酸	-10.5959
▁arms	-10.596
▁achieved	-10.5962
ガー	-10.5965
▁reason	-10.5968
▁Islamic	-10.5969
▁volume	-10.597
▁refused	-10.5972
紙	-10.5972
諸	-10.5974
▁resources	-10.5976
aka	-10.5977
眼	-10.5978
革命	-10.598
京都	-10.5983
▁metres	-10.5985
▁Diego	-10.5986
殿	-10.5986
▁methods	-10.5989
▁visited	-10.599
och	-10.5991
残	-10.5991
▁properties	-10.5995
MS	-10.5995
ブル	-10.5996
cal	-10.5996
▁Puerto	-10.5997
看	-10.5997
▁containing	-10.5999
▁Gordon	-10.6
每	-10.6002
▁Che	-10.6003
▁holds	-10.6004
▁holding	-10.6006
▁Expatriate	-10.6007
▁Communist	-10.6008
cur	-10.601
衣	-10.601
fe	-10.601
ニュース	-10.6011
hill	-10.6014
▁Legislative	-10.6015
▁Hockey	-10.6015
ことが	-10.6017
降	-10.6018
bra	-10.6018
BS	-10.6018
保護	-10.6018
▁perform	-10.6021
2001	-10.6022
詩	-10.6023
▁height	-10.603
▁Grant	-10.6034
▁Heritage	-10.6035
▁fought	-10.6036
上海	-10.6036
▁competitions	-10.6038
以降	-10.6041
キー	-10.6048
▁creating	-10.6048
があった	-10.605
bury	-10.6053
81	-10.6053
生物	-10.6055
▁Natural	-10.6058
lam	-10.6061
ona	-10.6063
az	-10.6065
gon	-10.6065
▁FIFA	-10.6066
図	-10.6068
电	-10.607
▁Week	-10.6072
射	-10.6076
▁Bowl	-10.6076
▁selection	-10.608
▁consisted	-10.6081
▁Executive	-10.6084
▁Fair	-10.6084
▁1938	-10.6085
▁memory	-10.6085
農	-10.6086
▁Officer	-10.6086
▁approved	-10.6089
▁Census	-10.6091
▁shared	-10.6091
▁2003,	-10.6092
タン	-10.6093
のような	-10.6096
▁authority	-10.6097
▁commissioned	-10.6097
▁Louisiana	-10.6098
▁Program	-10.6099
▁phase	-10.6099
圣	-10.61
▁Pop	-10.6101
▁literary	-10.6102
男性	-10.6102
▁2006.	-10.6102
▁Girl	-10.6104
elli	-10.6105
▁1916	-10.6105
ちゃん	-10.6105
PC	-10.6105
事故	-10.6107
安全	-10.6108
▁Trade	-10.6115
▁48	-10.6117
▁Moon	-10.6118
▁1919	-10.6119
▁Cemetery	-10.612
▁Antonio	-10.6123
公里	-10.6124
ging	-10.6127
▁iron	-10.613
color	-10.613
▁Orchestra	-10.6131
tar	-10.6134
ati	-10.6134
運行	-10.6138
▁promote	-10.6138
▁Mont	-10.6138
-5	-10.6138
ッツ	-10.614
取り	-10.6142
▁ending	-10.6143
▁bill	-10.6143
ova	-10.6145
aj	-10.6146
▁daily	-10.6147
舞	-10.6148
以来	-10.616
散	-10.6162
part	-10.6164
武器	-10.6167
osa	-10.6168
▁Musical	-10.6169
航	-10.6175
▁1905	-10.6179
これ	-10.6179
▁西	-10.6179
▁Pope	-10.6182
▁1907	-10.6183
It	-10.6184
级	-10.6185
難	-10.6187
MC	-10.6189
文学	-10.619
倒	-10.6193
▁Ab	-10.6193
▁adult	-10.6193
图	-10.6194
公演	-10.6195
▁brothers	-10.6201
▁application	-10.6201
▁Tre	-10.6205
olo	-10.6205
▁actions	-10.6206
west	-10.6208
▁Min	-10.6209
▁MP	-10.6213
スタ	-10.6213
▁script	-10.6214
▁search	-10.6215
▁sons	-10.6216
aria	-10.6219
▁storm	-10.6221
装	-10.6224
▁Son	-10.6225
▁drug	-10.6226
▁ultimately	-10.6228
hr	-10.6232
▁attempts	-10.6232
ological	-10.6234
▁charts	-10.6235
茶	-10.6236
▁Moore	-10.6238
ori	-10.624
▁attacked	-10.624
▁beat	-10.6241
▁Portugal	-10.6241
▁49	-10.6242
▁FA	-10.6242
ert	-10.6243
讓	-10.6245
一些	-10.6246
▁soccer	-10.6249
▁males	-10.6249
–16	-10.6252
▁driver	-10.6254
▁1915	-10.6257
▁Commander	-10.6258
elle	-10.6259
Con	-10.6261
mark	-10.6264
gate	-10.6264
▁retirement	-10.6265
▁map	-10.6267
ルー	-10.6268
▁boat	-10.6268
容	-10.6268
▁setting	-10.6268
▁begin	-10.6272
人が	-10.6272
祖	-10.6279
AM	-10.628
▁normal	-10.6282
▁unable	-10.6285
映像	-10.6291
▁ball	-10.6295
宇	-10.6298
cc	-10.6299
マル	-10.63
幕	-10.6302
開催	-10.6303
▁fans	-10.6306
▁category	-10.6306
▁Ga	-10.6309
也是	-10.6313
▁Opera	-10.6314
▁scheduled	-10.6314
▁effective	-10.6316
ものの	-10.6316
英國	-10.632
▁Phil	-10.632
▁question	-10.6321
孫	-10.6322
届	-10.6327
優	-10.6329
▁incident	-10.633
▁representative	-10.633
蘇	-10.6331
▁1909	-10.6334
▁plot	-10.6337
很	-10.6338
▁founding	-10.6344
▁Ottoman	-10.6344
ú	-10.6347
▁represent	-10.6347
收	-10.6348
漫画	-10.635
すること	-10.6354
そう	-10.6357
▁converted	-10.6358
▁Now	-10.636
宿	-10.636
行政	-10.6361
▁relatively	-10.6361
味	-10.6361
、1	-10.6365
▁actresses	-10.6368
▁Work	-10.6372
-10	-10.6377
▁Mill	-10.6379
star	-10.638
アイ	-10.6383
▁演	-10.6387
▁cricket	-10.6388
▁shortly	-10.6389
サー	-10.639
iv	-10.639
band	-10.6392
細	-10.6393
▁household	-10.6393
bro	-10.6393
の人物	-10.6403
-12	-10.6404
▁jazz	-10.6406
▁Reserve	-10.6409
当時の	-10.6409
場合	-10.6411
▁investigation	-10.6412
▁girls	-10.6412
▁Last	-10.6416
佳	-10.6418
▁Sta	-10.6418
▁consecutive	-10.642
▁Socorro	-10.6421
▁something	-10.6422
▁Short	-10.6423
work	-10.6426
▁Guard	-10.6431
経	-10.6435
1%	-10.6435
ろ	-10.6436
▁lot	-10.6437
▁LINEAR	-10.6438
▁Command	-10.644
▁Kal	-10.6442
des	-10.6442
▁Las	-10.6444
犬	-10.6445
郷	-10.6447
エンジン	-10.6449
▁How	-10.6452
包	-10.6454
慶	-10.6456
▁Who	-10.6457
▁receiving	-10.646
▁trees	-10.646
93	-10.6462
▁citizens	-10.6465
ture	-10.6467
▁programme	-10.6468
▁entrance	-10.6468
ever	-10.6473
▁Metro	-10.6475
▁Tan	-10.6475
▁Sur	-10.6477
▁sides	-10.6478
団体	-10.648
▁entitled	-10.6481
絵	-10.6482
現代	-10.6485
赛	-10.6485
–6	-10.6487
gg	-10.6488
▁(;	-10.6488
▁39	-10.649
▁presidential	-10.6494
nt	-10.6495
牌	-10.6495
lie	-10.6498
▁dropped	-10.6499
▁300	-10.6499
ロック	-10.6499
▁recognition	-10.6501
are	-10.6503
▁Cultural	-10.6503
之後	-10.6503
过	-10.6506
陣	-10.6507
▁opposed	-10.6507
登場	-10.6507
國際	-10.6508
▁Non	-10.651
▁2021.	-10.6511
ira	-10.652
▁Welsh	-10.6521
pre	-10.6521
▁qualified	-10.6521
▁Dance	-10.6521
權	-10.6522
▁Dave	-10.6523
▁letters	-10.6523
▁generation	-10.6525
-17	-10.6526
▁Imperial	-10.6527
▁object	-10.653
eng	-10.6531
▁Bad	-10.6532
▁Indonesia	-10.6534
変更	-10.6542
▁employed	-10.6542
文字	-10.6545
▁extension	-10.6546
▁extensive	-10.6546
AL	-10.6547
籍	-10.6554
▁corner	-10.6561
▁tennis	-10.6564
▁le	-10.6564
イギリス	-10.6566
▁Global	-10.6566
▁Village	-10.6571
▁Ger	-10.6576
▁Prior	-10.6578
▁representing	-10.6579
▁focused	-10.6583
▁fine	-10.6583
non	-10.6584
▁Administration	-10.6585
▁web	-10.6585
▁Singh	-10.6586
▁locations	-10.6587
▁2020.	-10.6599
▁Garden	-10.66
▁この	-10.6601
▁Alex	-10.6604
nia	-10.6604
スポーツ	-10.6605
▁Miami	-10.6605
▁sets	-10.6609
▁launch	-10.6609
▁Bureau	-10.661
eo	-10.6611
樂	-10.6611
朗	-10.6611
▁performing	-10.6612
▁DC	-10.6613
▁yellow	-10.6613
▁occupied	-10.6614
獲	-10.6616
増	-10.6622
▁acts	-10.6631
▁champions	-10.6633
▁また	-10.6636
(1	-10.6639
▁maximum	-10.664
dra	-10.6641
丁目	-10.6643
竜	-10.6644
ole	-10.6644
▁candidates	-10.6644
91	-10.6647
af	-10.6649
AC	-10.6657
配信	-10.6659
年没	-10.666
レース	-10.6663
▁1904	-10.6664
▁Sen	-10.6666
中に	-10.6667
isation	-10.6667
De	-10.6667
▁What	-10.6671
▁(15	-10.6672
▁contact	-10.6673
双	-10.6675
ライ	-10.6675
▁Dublin	-10.6675
姓	-10.6676
ネット	-10.6677
スーパー	-10.6677
需要	-10.6678
フジテレビ	-10.6681
▁learning	-10.6683
и	-10.6683
8%	-10.6685
▁guns	-10.6685
Star	-10.6686
▁Villages	-10.6687
▁powerful	-10.6687
▁want	-10.6689
自動車	-10.6689
内の	-10.6691
▁directors	-10.6691
菜	-10.6691
額	-10.6692
▁20,	-10.6696
小説	-10.6696
▁card	-10.6697
純	-10.6698
▁airport	-10.6699
▁Ol	-10.6702
-8	-10.6708
▁Dam	-10.6713
▁straight	-10.6714
mont	-10.6715
▁Mon	-10.6715
▁loan	-10.6717
▁contrast	-10.6719
▁junior	-10.672
▁counter	-10.6722
潮	-10.6723
▁say	-10.6728
▁micro	-10.6728
▁permanent	-10.6729
▁sector	-10.673
▁speech	-10.6733
▁Only	-10.6733
▁aged	-10.6734
bert	-10.6737
▁lawyer	-10.674
▁Mayor	-10.6741
▁reception	-10.6741
▁Run	-10.6741
sy	-10.6742
コー	-10.6743
氣	-10.6744
▁Trust	-10.6745
Lo	-10.6746
2004	-10.6746
ations	-10.6749
ではなく	-10.6751
▁highway	-10.6751
▁44	-10.6754
變	-10.6756
3%	-10.6758
2%	-10.676
状	-10.6763
▁environmental	-10.6765
護	-10.6767
▁Shah	-10.6769
▁economy	-10.6769
▁determined	-10.6772
▁think	-10.6773
-7	-10.6776
IS	-10.6783
▁technical	-10.6784
湯	-10.6784
aki	-10.6786
▁hands	-10.6786
电影	-10.6788
注	-10.6791
ser	-10.6792
ute	-10.6795
記念	-10.6797
▁Ron	-10.6801
▁copies	-10.6802
▁Tamil	-10.6804
▁hotel	-10.6804
▁identity	-10.6805
▁invasion	-10.6805
▁Lincoln	-10.6805
設置	-10.6806
裕	-10.6806
工場	-10.6807
2003	-10.6809
▁Volume	-10.681
遊戲	-10.6811
▁Gun	-10.6812
▁Metropolitan	-10.6813
としての	-10.6815
北部	-10.6815
契約	-10.6819
そ	-10.6819
術	-10.682
▁flat	-10.6823
vel	-10.6824
▁scale	-10.6833
運	-10.6835
▁Margaret	-10.6836
られている	-10.6837
▁ring	-10.6838
▁paintings	-10.6844
蒂	-10.6847
終了	-10.6848
索科罗	-10.6849
–5	-10.6849
▁herself	-10.6849
林肯近地小行星研究小组	-10.6851
佛	-10.6852
▁Mag	-10.6853
▁1901	-10.6862
▁covers	-10.6863
▁centuries	-10.6865
▁#	-10.6866
環	-10.6868
▁faced	-10.6874
from	-10.6874
▁religion	-10.688
項	-10.6881
生産	-10.6882
▁1889	-10.6884
▁Sol	-10.689
▁contributed	-10.6891
▁Windows	-10.6895
ado	-10.6899
ザー	-10.69
▁onto	-10.6901
▁Baron	-10.6901
とされる	-10.6901
満	-10.6905
▁churches	-10.6907
▁matter	-10.6909
▁dynasty	-10.6912
ei	-10.6912
▁steel	-10.6912
▁increasing	-10.6917
ato	-10.6917
tha	-10.6917
▁basic	-10.6918
▁expressed	-10.6922
方向	-10.6923
表現	-10.6923
▁temperature	-10.6926
▁poetry	-10.6927
▁Bon	-10.6928
文庫	-10.693
▁violence	-10.6934
▁mind	-10.6934
▁〜	-10.6935
▁José	-10.6939
▁Studios	-10.694
しない	-10.694
▁Dean	-10.6945
鄉	-10.6945
形成	-10.6945
▁Rio	-10.6946
nik	-10.695
勢	-10.6952
▁Play	-10.6952
兄弟	-10.6961
▁1902	-10.6962
▁combination	-10.6966
課	-10.6966
▁Plan	-10.6968
ハー	-10.6968
化学	-10.6969
▁avoid	-10.697
▁screen	-10.6972
说	-10.6972
▁Walker	-10.6973
2022	-10.6973
——	-10.6974
▁|}	-10.6977
▁connection	-10.6978
–3	-10.6978
▁Nu	-10.6981
▁Iron	-10.6981
▁meant	-10.6982
ora	-10.6983
▁http	-10.6984
mat	-10.6985
▁rare	-10.6986
龙	-10.6988
圖	-10.6991
▁Lawrence	-10.6994
▁UN	-10.6995
▁Ball	-10.6997
▁Gu	-10.7002
岸	-10.7003
基本	-10.7003
ification	-10.7003
▁collected	-10.7005
▁Male	-10.7009
PA	-10.7013
壁	-10.7018
▁Athletics	-10.7022
刀	-10.7028
▁independence	-10.7029
▁Upon	-10.703
▁Karl	-10.703
乗	-10.7031
胡	-10.7032
▁Ur	-10.7033
球員	-10.7037
▁Belgian	-10.7038
获得	-10.7042
地區	-10.7042
へと	-10.7043
▁write	-10.7043
茂	-10.7046
▁Digital	-10.7047
▁am	-10.705
▁#1	-10.705
▁Chart	-10.7052
▁Romanian	-10.7054
进	-10.7055
▁Mur	-10.7057
▁Kent	-10.7059
▁Des	-10.7061
衛	-10.7061
▁2005.	-10.7062
といった	-10.7063
▁ma	-10.7064
▁Ly	-10.7064
▁Edinburgh	-10.7065
800	-10.7065
減	-10.7066
▁Jane	-10.7066
bel	-10.707
法律	-10.707
ua	-10.7071
▁Com	-10.7073
▁Spring	-10.7075
大型	-10.7076
▁im	-10.7077
down	-10.7082
▁wind	-10.7087
あり	-10.7089
▁occurs	-10.709
を経て	-10.7091
コーナー	-10.7098
cus	-10.7098
oo	-10.7099
mes	-10.7099
▁planning	-10.71
ense	-10.7102
▁supporting	-10.7104
▁Bra	-10.7105
▁Harris	-10.7106
▁ceremony	-10.7107
还	-10.7113
▁stadium	-10.7113
聯	-10.7114
データ	-10.7118
▁display	-10.7118
▁finishing	-10.712
var	-10.712
SS	-10.7125
pen	-10.7126
▁merged	-10.7132
▁fleet	-10.7132
▁franchise	-10.7132
▁2002,	-10.7133
▁Girls	-10.7133
▁1880	-10.7139
▁Jesus	-10.714
oma	-10.7143
▁your	-10.7143
tr	-10.7144
ska	-10.7145
▁Deputy	-10.715
▁fields	-10.715
He	-10.7151
▁Sel	-10.7152
収録	-10.7153
の一部	-10.7153
▁Finland	-10.7153
▁Yo	-10.7154
通信	-10.7155
▁Malaysia	-10.7155
ale	-10.7156
▁1903	-10.7156
警	-10.7156
▁successfully	-10.7163
博士	-10.7164
ように	-10.7169
ライン	-10.717
▁Liga	-10.7174
スペシャル	-10.7176
mus	-10.7176
一方	-10.7177
key	-10.7177
主演	-10.7178
▁compete	-10.7182
▁Dream	-10.7187
▁visual	-10.7199
▁beyond	-10.7201
▁Kan	-10.7202
諾	-10.7203
▁Ice	-10.7209
▁cycle	-10.721
▁patients	-10.7211
税	-10.7214
▁motor	-10.7215
▁heat	-10.7223
▁respect	-10.7225
▁municipal	-10.7226
▁Front	-10.7228
run	-10.7229
ory	-10.7229
▁sought	-10.7229
位置	-10.7235
▁41	-10.7236
依	-10.7237
▁Jordan	-10.7238
▁Shin	-10.7239
rus	-10.7243
▁Section	-10.7245
▁Arkansas	-10.7247
▁price	-10.7254
▁weapons	-10.7256
▁passenger	-10.7256
乃	-10.7256
▁Hor	-10.7259
構造	-10.7259
▁laws	-10.7262
▁comic	-10.7262
浩	-10.7265
DS	-10.7266
活	-10.7269
▁Wa	-10.727
▁educational	-10.727
▁needs	-10.7275
RO	-10.7275
▁pieces	-10.7279
▁Key	-10.7279
攻	-10.7279
転	-10.728
運転	-10.7281
影響	-10.7281
$	-10.7283
させた	-10.7284
一郎	-10.7284
市の	-10.7285
▁Kevin	-10.7288
-{	-10.7289
庫	-10.7291
ks	-10.7291
ons	-10.7292
跡	-10.7293
▁abandoned	-10.7295
▁collaboration	-10.7296
レス	-10.7297
ど	-10.7297
ると	-10.7297
▁enter	-10.7299
☆	-10.7301
rid	-10.7301
▁rise	-10.7302
設定	-10.7303
市民	-10.7304
コース	-10.7304
ib	-10.7305
ホーム	-10.7306
▁introduction	-10.7309
▁Tor	-10.731
に伴い	-10.7312
▁influenced	-10.7312
剣	-10.7314
▁Rob	-10.7315
▁shape	-10.7315
劉	-10.7315
▁Mrs	-10.7317
されて	-10.7318
▁functions	-10.7318
ration	-10.7318
进行	-10.732
▁Ser	-10.7322
▁partnership	-10.7323
▁secretary	-10.7323
▁establishment	-10.7325
認為	-10.7325
▁nuclear	-10.7328
▁Marie	-10.7331
▁Wild	-10.7334
▁praised	-10.7335
east	-10.7336
構成	-10.7339
ロシア	-10.7339
▁Kin	-10.7339
▁Lin	-10.7341
梁	-10.7348
▁Publishing	-10.735
▁injured	-10.735
▁stating	-10.735
▁translation	-10.735
架	-10.7356
峰	-10.7357
▁developing	-10.7358
▁try	-10.7359
平均	-10.736
▁Guide	-10.7361
俳優	-10.7361
gal	-10.7368
▁resigned	-10.7369
▁regarding	-10.7369
公式	-10.737
kov	-10.7372
臺灣	-10.7374
傷	-10.7378
种	-10.7378
qu	-10.7381
▁reasons	-10.7384
▁三	-10.7385
▁Cleveland	-10.7395
white	-10.7396
の歴史	-10.7398
▁Montreal	-10.7402
▁Trans	-10.7402
宗教	-10.7404
温	-10.7406
▁slightly	-10.7412
type	-10.7414
▁Hollywood	-10.7418
▁Race	-10.742
ade	-10.742
皇	-10.7422
系统	-10.7422
Li	-10.7425
礼	-10.7427
▁Atlanta	-10.7427
変	-10.7429
作詞	-10.7431
刊	-10.7432
虎	-10.7432
▁Roger	-10.7432
▁internal	-10.7434
取得	-10.7436
▁contest	-10.7437
▁negative	-10.7439
▁Gor	-10.744
台湾	-10.744
のように	-10.7441
▁grand	-10.7441
翌	-10.7442
tter	-10.7443
▁hair	-10.7445
▁invited	-10.7446
▁Den	-10.7447
電子	-10.7447
▁derived	-10.7448
Mar	-10.7449
提出	-10.745
最後	-10.7453
related	-10.7455
▁Six	-10.7457
▁believe	-10.7458
!」	-10.7459
▁Honours	-10.7468
dom	-10.7471
▁2001,	-10.7471
▁zone	-10.7471
▁foundation	-10.7474
のうち	-10.7479
家庭	-10.7481
ベスト	-10.7481
John	-10.7482
▁criminal	-10.7483
▁foot	-10.7485
恋	-10.7485
議員	-10.7487
▁marine	-10.7487
▁Comics	-10.7488
▁Five	-10.7489
lia	-10.749
▁offices	-10.7491
▁Mid	-10.7491
急	-10.7492
▁inhabitants	-10.7494
▁installed	-10.7495
ose	-10.7497
オリジナル	-10.7498
▁Jeff	-10.7498
election	-10.7498
Pa	-10.7501
▁43	-10.7504
▁contained	-10.7505
乡	-10.7506
條	-10.7507
上的	-10.7507
▁walls	-10.751
▁Economic	-10.7511
stein	-10.7512
mal	-10.7514
▁boy	-10.7517
rum	-10.7517
▁passes	-10.7518
▁Thailand	-10.7519
aire	-10.7525
黨	-10.753
産業	-10.7532
▁注釈	-10.7533
單	-10.7533
▁Defense	-10.7535
▁Je	-10.7535
備	-10.7543
杜	-10.7546
關	-10.7547
状態	-10.7547
▁Ward	-10.7548
ハン	-10.7548
worth	-10.7549
ことで	-10.7549
▁Utah	-10.7552
▁aid	-10.7553
ī	-10.7555
eg	-10.7558
▁Palace	-10.7559
▁Studio	-10.7561
出現	-10.7562
冬	-10.7563
麻	-10.7563
4%	-10.7565
ple	-10.7569
▁improve	-10.757
生まれ	-10.757
▁Nova	-10.757
▁hired	-10.7573
デン	-10.7573
ball	-10.7576
▁55	-10.7577
▁Sp	-10.7577
▁passing	-10.758
雙	-10.7581
▁Gen	-10.7582
▁Sim	-10.7582
▁observed	-10.7585
set	-10.7589
▁participate	-10.7589
zy	-10.7591
ré	-10.7592
5%	-10.7593
経営	-10.7594
▁existence	-10.7597
▁400	-10.7599
▁concluded	-10.7603
▁Mat	-10.7603
▁Morgan	-10.7603
▁formal	-10.7604
街道	-10.7605
▁Pen	-10.7606
7%	-10.7612
▁Der	-10.7613
通过	-10.7615
▁Boys	-10.7615
探	-10.7618
略	-10.762
北京	-10.7622
不同	-10.7624
肉	-10.7626
▁decades	-10.7626
▁Ryan	-10.7627
▁enemy	-10.763
導	-10.763
考	-10.7632
▁Gre	-10.7632
▁MPs	-10.7633
莫	-10.764
裏	-10.7641
中の	-10.7643
▁ア	-10.7643
▁外部链接	-10.7645
▁worldwide	-10.7645
、3	-10.7649
微	-10.7653
▁trans	-10.7654
▁bodies	-10.7654
よく	-10.7658
▁voted	-10.7661
▁genera	-10.7663
庁	-10.7664
▁Euro	-10.7664
イタリア	-10.7666
》、《	-10.7669
▁Peace	-10.767
ele	-10.7672
sur	-10.7673
zer	-10.7677
头	-10.7678
家の	-10.7679
▁reign	-10.7679
成为	-10.7682
gun	-10.7683
ob	-10.7683
恵	-10.7684
▁reserve	-10.7685
▁causing	-10.7686
则	-10.7686
▁AD	-10.7687
▁Alumni	-10.7691
を含む	-10.7693
ela	-10.7694
▁finds	-10.7698
休	-10.7699
▁composition	-10.7701
▁details	-10.7705
撮影	-10.7706
▁Mission	-10.7707
▁Fund	-10.771
賀	-10.771
他們	-10.7712
ello	-10.7717
▁Russell	-10.7718
AP	-10.7722
奖	-10.7723
フル	-10.7726
戦闘	-10.7727
▁Medicine	-10.7727
▁us	-10.7728
▁serious	-10.7729
初の	-10.7732
功	-10.7733
▁refers	-10.7734
仲	-10.7735
▁determine	-10.7736
°	-10.7739
料	-10.774
og	-10.774
▁cricketers	-10.7741
To	-10.7741
▁Knight	-10.7745
▁75	-10.7746
▁protein	-10.7748
▁interior	-10.7752
▁fan	-10.7753
フリー	-10.7755
▁advance	-10.7755
編成	-10.7756
nic	-10.7759
▁Argentine	-10.7759
bin	-10.776
ić	-10.776
▁ends	-10.7763
現在は	-10.7763
▁powers	-10.7764
▁fast	-10.7764
▁carry	-10.7765
▁registered	-10.7767
▁Serbian	-10.7767
▁capture	-10.7768
ニュー	-10.7769
かった	-10.777
時代の	-10.777
med	-10.7771
▁reform	-10.7771
▁publications	-10.7771
▁argued	-10.7772
NA	-10.7773
▁involving	-10.7773
▁東	-10.7775
▁backing	-10.7776
▁prime	-10.7776
▁1898	-10.7777
▁Our	-10.7779
▁reality	-10.7783
▁Pass	-10.7784
Be	-10.7785
▁Rights	-10.7788
▁purchase	-10.7788
▁南	-10.7788
▁ways	-10.7789
務	-10.7792
▁premiered	-10.7794
stra	-10.7799
彼の	-10.78
▁edge	-10.78
▁doing	-10.78
Ar	-10.78
DA	-10.7801
▁constituency	-10.7803
汉	-10.7807
▁Cho	-10.7809
▁Saturday	-10.7809
よりも	-10.781
▁grade	-10.7813
动	-10.7814
激	-10.7816
ö	-10.7816
ジョン	-10.7816
▁Bruce	-10.7819
▁Players	-10.782
▁fashion	-10.7822
藏	-10.7823
2002	-10.7824
▁Tournament	-10.7824
▁Taiwan	-10.7825
民族	-10.7826
▁prize	-10.7827
▁flow	-10.7831
オブ	-10.7831
ジー	-10.7833
を受けた	-10.7836
ユ	-10.7836
▁Racing	-10.7838
▁incorporated	-10.7839
form	-10.7841
▁Hungary	-10.7841
軍事	-10.7843
▁specifically	-10.7843
初期	-10.7844
▁folk	-10.7848
▁Seattle	-10.785
▁occur	-10.7852
▁laid	-10.7852
▁Energy	-10.7853
mit	-10.7855
cia	-10.7859
マイ	-10.786
▁funding	-10.7861
▁animal	-10.7863
▁consisting	-10.7865
–1	-10.7866
▁toward	-10.7868
▁Romania	-10.7869
写	-10.787
▁maintained	-10.7871
▁Kelly	-10.7871
英国	-10.7873
▁Victor	-10.7874
▁Colonel	-10.7876
经	-10.7876
▁Fred	-10.7878
▁64	-10.7881
▁Arena	-10.7885
6%	-10.7885
▁Seven	-10.7889
演奏	-10.7891
Pro	-10.7891
-18	-10.7894
▁Princess	-10.7894
▁heavily	-10.7894
精神	-10.7899
▁target	-10.7899
区間	-10.79
翼	-10.7903
いて	-10.7904
▁2004.	-10.7904
者の	-10.7904
▁Flora	-10.7904
▁Hart	-10.7906
▁1899	-10.7906
做	-10.7906
▁Ste	-10.7911
▁Norman	-10.7912
▁1:	-10.7912
▁Cro	-10.7914
▁translated	-10.7916
▁Dead	-10.7916
▁scenes	-10.7917
▁weather	-10.7919
宣	-10.792
▁Collection	-10.7921
駐	-10.7922
▁pandemic	-10.7924
発表	-10.7926
–4	-10.7929
トリ	-10.793
▁bo	-10.7933
實	-10.7936
スタジオ	-10.7936
="#	-10.7939
ER	-10.7939
▁flag	-10.7939
▁Campbell	-10.7939
▁本	-10.7941
▁spot	-10.7941
ans	-10.7941
▁someone	-10.7943
敏	-10.7943
▁context	-10.7943
▁expression	-10.7944
▁Tower	-10.7947
承	-10.7947
▁twelve	-10.7949
▁dates	-10.7953
py	-10.7953
▁commission	-10.7955
▁solid	-10.7957
▁Disney	-10.7958
少女	-10.796
Ra	-10.796
"),	-10.796
▁52	-10.7961
昭	-10.7963
▁engaged	-10.7963
ので	-10.7966
▁Transportation	-10.7966
大臣	-10.7966
▁address	-10.7968
▁chance	-10.7968
▁mine	-10.7968
Do	-10.7969
jan	-10.7971
市場	-10.7973
Ta	-10.7973
▁地理	-10.7978
停	-10.7979
土地	-10.7979
勝利	-10.7984
–8	-10.7985
▁Finnish	-10.7989
)3	-10.7989
敬	-10.7993
▁narrow	-10.7995
▁animated	-10.7996
ワン	-10.8
▁31,	-10.8001
屆	-10.8001
▁standards	-10.8001
▁Champion	-10.8001
600	-10.8004
距離	-10.8006
▁Dark	-10.8006
▁objects	-10.8007
ような	-10.8013
▁Iraq	-10.8015
▁ruled	-10.802
になっている	-10.802
▁UEFA	-10.8023
▁electronic	-10.8027
機構	-10.8028
▁(1)	-10.803
▁Organization	-10.803
東京都	-10.8031
▁statement	-10.8033
莉	-10.8033
▁behavior	-10.8035
▁Vienna	-10.8036
▁views	-10.8036
level	-10.8036
える	-10.804
▁core	-10.8041
▁Chile	-10.8042
und	-10.8043
▁kill	-10.8043
業務	-10.8044
▁funds	-10.8047
DVD	-10.8047
症	-10.8048
▁Railroad	-10.8049
ること	-10.805
摩	-10.8051
会議	-10.8052
ret	-10.8052
創	-10.8055
dor	-10.8057
ians	-10.8063
仙	-10.8064
採用	-10.8066
▁Pittsburgh	-10.8068
▁$2	-10.8071
▁classification	-10.8073
▁reaching	-10.8074
▁Operation	-10.8074
▁Crown	-10.8074
發展	-10.8075
2)	-10.8076
▁compilation	-10.8076
許	-10.808
▁brief	-10.8081
宏	-10.8081
▁CEO	-10.8085
ダン	-10.8085
▁(),	-10.8093
yu	-10.8096
▁tri	-10.8096
▁Oblast	-10.8099
選手権	-10.81
装置	-10.81
示	-10.8104
地下	-10.8104
▁justice	-10.8111
擔任	-10.8115
▁Ana	-10.8115
ill	-10.8116
查	-10.8116
應	-10.8117
▁Stewart	-10.8119
SU	-10.8122
準	-10.8124
炎	-10.813
款	-10.8132
ノー	-10.8133
▁glass	-10.8137
▁Capital	-10.814
▁Chairman	-10.814
▁Wind	-10.8144
キング	-10.8146
皆	-10.8147
▁accused	-10.8148
cer	-10.8149
▁Christopher	-10.8149
▁path	-10.8151
を行った	-10.8157
RC	-10.8159
▁sale	-10.816
▁strength	-10.8161
▁Nar	-10.8168
▁150	-10.817
▁joining	-10.8171
キャ	-10.8171
zu	-10.8172
TA	-10.8172
▁Model	-10.8172
刑事	-10.8173
▁replace	-10.8173
杯	-10.8174
lum	-10.8176
開業	-10.8179
▁Base	-10.8182
条件	-10.8183
▁Var	-10.8185
win	-10.819
サイ	-10.8193
▁Soccer	-10.8193
▁Call	-10.8195
ue	-10.8197
SE	-10.8198
▁establish	-10.8199
▁Jimmy	-10.82
枠	-10.8201
陸	-10.8203
▁importance	-10.8204
▁orders	-10.8204
▁Gro	-10.8206
▁chair	-10.8206
堡	-10.8207
▁trying	-10.8207
▁edited	-10.8209
▁ABC	-10.8209
č	-10.821
▁birds	-10.821
▁Farm	-10.8211
決	-10.8213
塩	-10.8213
General	-10.8214
▁producing	-10.8215
▁47	-10.8217
▁46	-10.8221
ima	-10.8221
▁Morris	-10.8222
救	-10.8224
▁session	-10.8226
▁1896	-10.823
▁Shu	-10.8233
始	-10.8234
▁critic	-10.8237
青年	-10.8237
una	-10.8242
▁agency	-10.8242
Bo	-10.8242
▁Baltimore	-10.8244
▁reduce	-10.8245
tte	-10.8245
▁trained	-10.8246
▁(5	-10.8246
▁employees	-10.8248
彩	-10.8248
域	-10.8248
av	-10.8249
▁Web	-10.8253
▁Hy	-10.8253
▁shooting	-10.8254
逆	-10.8254
ava	-10.8255
nch	-10.8255
Sa	-10.8256
▁2022.	-10.8256
▁northeast	-10.8257
ali	-10.8257
ock	-10.8257
▁engines	-10.8258
されており	-10.8258
term	-10.8259
▁Dor	-10.826
mu	-10.8266
の中で	-10.8266
▁Donald	-10.827
adi	-10.8272
▁resistance	-10.8275
朝鮮	-10.8277
▁Austin	-10.8278
▁colonial	-10.828
š	-10.8283
念	-10.8286
行為	-10.8287
▁Then	-10.8288
ox	-10.829
▁journal	-10.829
ila	-10.8292
qua	-10.8292
诺	-10.8293
master	-10.8296
▁Senator	-10.8297
▁islands	-10.8298
sey	-10.8299
ステージ	-10.8302
▁Mas	-10.8303
算	-10.8304
施	-10.8307
▁recordings	-10.8308
▁Staff	-10.8311
▁Dun	-10.8314
▁drivers	-10.8314
DP	-10.8318
▁Note	-10.8321
▁choice	-10.8323
rick	-10.8328
▁images	-10.8329
死亡	-10.8331
▁ethnic	-10.8333
▁affected	-10.8333
升	-10.8333
彼は	-10.8334
▁strike	-10.8336
▁Adams	-10.8337
▁Bangladesh	-10.8339
しい	-10.8339
存	-10.834
▁exist	-10.834
貝	-10.834
▁entirely	-10.834
▁Guinea	-10.8342
入り	-10.8342
▁Egyptian	-10.8343
▁starts	-10.8343
▁Gil	-10.8343
▁neighborhood	-10.8343
▁adapted	-10.8344
▁factory	-10.8347
年まで	-10.8349
カップ	-10.835
▁Ri	-10.8354
▁armed	-10.8356
die	-10.8357
▁Roy	-10.8358
▁eye	-10.836
▁Athletic	-10.8361
倍	-10.8365
盤	-10.8366
トラ	-10.8367
栄	-10.8369
▁Page	-10.837
ET	-10.8371
▁Hans	-10.8372
▁中	-10.8372
▁chain	-10.8373
沼	-10.8377
▁Maine	-10.8377
▁Hampshire	-10.8378
▁medicine	-10.8379
nis	-10.8379
▁1897	-10.838
▁Vo	-10.8381
合作	-10.8384
▁contain	-10.8386
▁Jacob	-10.8388
▁techniques	-10.8388
列表	-10.8389
▁proved	-10.839
排	-10.8393
dia	-10.8396
天皇	-10.8397
▁signal	-10.8397
▁causes	-10.8402
book	-10.8404
▁graduate	-10.8404
ore	-10.8405
▁Bush	-10.8406
▁budget	-10.8406
▁THE	-10.8406
▁Kennedy	-10.8407
ien	-10.8408
▁acid	-10.8408
最佳	-10.8411
MP	-10.8412
▁peak	-10.8412
展開	-10.8416
▁debate	-10.8416
▁heard	-10.8423
基地	-10.8423
▁bishop	-10.8423
▁brown	-10.8425
▁Ye	-10.8426
▁orchestra	-10.8427
▁Urban	-10.8428
べ	-10.8428
Na	-10.8429
▁describes	-10.8431
枚	-10.8431
▁Agency	-10.8433
▁para	-10.8433
▁painters	-10.8435
目前	-10.8436
eb	-10.8439
▁labor	-10.8441
▁briefly	-10.8442
DC	-10.8443
▁Writers	-10.8444
ther	-10.8444
▁Municipality	-10.8445
AT	-10.8448
tt	-10.8449
▁1999,	-10.8451
▁tropical	-10.8455
赫	-10.8456
のある	-10.8457
▁improved	-10.8458
桑	-10.8462
▁SC	-10.8462
▁Though	-10.8466
▁Website	-10.8467
値	-10.8468
▁Robinson	-10.8471
且	-10.8471
▁Nazi	-10.8473
ST	-10.8474
▁closely	-10.8478
▁1870	-10.8479
▁parallel	-10.8479
gel	-10.8479
但是	-10.848
").	-10.848
▁calling	-10.8481
▁gain	-10.8487
▁seventh	-10.8488
歴史	-10.8488
詞	-10.849
mas	-10.8491
ドル	-10.8492
▁brain	-10.8497
▁intelligence	-10.8498
-16	-10.8499
帕	-10.8499
蒙	-10.85
ath	-10.8502
▁Carter	-10.8503
including	-10.8504
従	-10.8506
阳	-10.8509
▁agricultural	-10.8512
▁Alfred	-10.8512
補	-10.8514
▁Tur	-10.8516
bus	-10.8519
仍	-10.8521
▁Ag	-10.8525
元年	-10.8526
▁guard	-10.8527
mor	-10.8529
誠	-10.853
▁rating	-10.853
▁Once	-10.8534
▁Ros	-10.8535
(2	-10.8538
▁Personnel	-10.8538
uck	-10.854
game	-10.8541
▁LGBT	-10.8543
▁sell	-10.8548
rat	-10.855
▁scholars	-10.8551
ぐ	-10.8551
主に	-10.8552
▁ha	-10.8552
▁really	-10.8552
ille	-10.8556
由於	-10.8557
▁o	-10.8557
刻	-10.8558
▁Side	-10.8559
▁mill	-10.856
CO	-10.8562
▁committed	-10.8562
Me	-10.8564
▁distinct	-10.8564
▁regarded	-10.8565
▁Thompson	-10.857
▁dry	-10.8572
希望	-10.8573
▁documents	-10.8574
輝	-10.8577
ets	-10.8578
アジア	-10.8578
▁Convention	-10.8579
▁Fall	-10.858
▁distributed	-10.858
▁na	-10.8581
▁freedom	-10.8582
shan	-10.8582
共和国	-10.8584
▁garden	-10.8585
学会	-10.8587
mond	-10.8587
▁applications	-10.8594
▁Lang	-10.8595
▁trip	-10.8595
帶	-10.8599
▁Type	-10.8603
移動	-10.8603
▁Dallas	-10.8608
▁ideas	-10.8608
▁Constitution	-10.861
▁Cap	-10.8613
▁Lane	-10.8617
▁northwest	-10.8618
▁Sarah	-10.8619
事務所	-10.862
様々な	-10.8623
登録	-10.8623
▁Angel	-10.8624
▁Just	-10.8625
節目	-10.8625
ned	-10.8626
▁don	-10.8628
宋	-10.863
▁getting	-10.8631
▁Nelson	-10.8631
▁residence	-10.8635
▁Hand	-10.8635
Ba	-10.8636
▁calls	-10.8638
▁priest	-10.8642
博物館	-10.8644
▁Schools	-10.8645
▁motion	-10.8648
变	-10.865
ーン	-10.8652
▁quite	-10.8653
第四	-10.8661
▁Stanley	-10.8662
rich	-10.8662
▁Orthodox	-10.8663
▁Are	-10.8667
▁sequence	-10.867
wick	-10.8671
▁Hol	-10.8671
バル	-10.8671
Ro	-10.8673
▁attend	-10.8674
▁NBA	-10.8674
▁controlled	-10.8681
▁Jazz	-10.8681
卷	-10.8682
運用	-10.8683
▁Wrestling	-10.8683
lay	-10.8684
▁opportunity	-10.8684
干	-10.8685
▁crossing	-10.8685
上の	-10.8686
-20	-10.8686
芳	-10.8687
▁Cricket	-10.8687
▁Cook	-10.8689
作為	-10.869
▁Express	-10.869
▁Thus	-10.8691
乱	-10.8693
▁Graham	-10.8693
推	-10.8696
▁北	-10.8699
協力	-10.8699
医	-10.8703
なる	-10.8706
avi	-10.8707
▁chose	-10.8708
時の	-10.8709
▁Training	-10.871
▁locality	-10.8712
LA	-10.8713
▁Eu	-10.8713
▁possibly	-10.8717
▁Construction	-10.872
投票	-10.872
フェ	-10.8721
▁contributions	-10.8722
▁dam	-10.8723
▁Glen	-10.8725
IT	-10.8727
▁pages	-10.8727
▁Brothers	-10.8734
▁1895	-10.8739
名称	-10.874
▁Lanka	-10.874
cut	-10.8742
▁actual	-10.8746
署	-10.8747
大きな	-10.8747
▁Pierre	-10.8748
當時	-10.875
ved	-10.875
▁香港	-10.8752
魔法	-10.8753
▁YouTube	-10.8757
▁operate	-10.8758
限定	-10.8761
▁Conservative	-10.8761
▁users	-10.8764
EP	-10.8768
Or	-10.8768
歌曲	-10.8774
▁adjacent	-10.8776
国民	-10.8776
▁Tro	-10.8779
▁Marshall	-10.8782
弟	-10.8784
観	-10.8784
▁Has	-10.8785
团	-10.8785
テレビ朝日	-10.8785
没有	-10.8788
▁Rico	-10.8789
露	-10.879
nal	-10.8792
埃	-10.8792
▁poly	-10.8794
▁soundtrack	-10.8795
▁step	-10.8797
α	-10.8799
rowspan	-10.8799
▁Food	-10.8801
結婚	-10.8801
仕	-10.8805
▁earliest	-10.8806
犯	-10.8806
▁Report	-10.8809
▁Portland	-10.881
▁Carlos	-10.881
▁measures	-10.8812
海外	-10.8815
▁rose	-10.8817
姫	-10.8818
ール	-10.8819
萨	-10.8822
委员会	-10.8823
hand	-10.8826
しか	-10.8827
速度	-10.8828
国际	-10.883
▁PC	-10.8833
ほ	-10.8833
▁opposite	-10.8833
▁photo	-10.8833
とし	-10.8834
ged	-10.8834
廣	-10.8837
ヨ	-10.8837
雑誌	-10.8838
▁damaged	-10.8839
fo	-10.884
学科	-10.8844
▁expedition	-10.8844
▁Wright	-10.8845
▁device	-10.8847
:1	-10.885
策	-10.885
▁values	-10.885
▁Challenge	-10.8852
▁landing	-10.8854
▁Years	-10.8857
▁vocal	-10.8859
▁wave	-10.8861
▁singing	-10.8862
▁<	-10.8862
ight	-10.8862
楽曲	-10.8863
▁composers	-10.8865
list	-10.8868
クロ	-10.887
▁severe	-10.8871
MO	-10.8873
▁Gulf	-10.8874
▁Th	-10.8874
铁路	-10.8875
▁bottom	-10.8877
▁pick	-10.8877
bal	-10.8879
幅	-10.8882
▁Dakota	-10.8885
▁successor	-10.8885
▁brick	-10.8885
gue	-10.8888
▁coal	-10.8888
▁deputy	-10.889
▁Hills	-10.889
報告	-10.8892
finals	-10.8894
▁Record	-10.8894
社長	-10.8895
▁1894	-10.8895
▁2003.	-10.8897
教会	-10.8899
ants	-10.8904
▁colspan	-10.8905
▁Prefecture	-10.8907
1997	-10.8908
子供	-10.8909
臣	-10.8909
▁request	-10.8912
hl	-10.8916
紹介	-10.8916
▁Villa	-10.8916
▁broken	-10.8917
亮	-10.8917
▁Johnny	-10.8918
▁Baker	-10.8924
バイ	-10.8924
になり	-10.8925
メディア	-10.8926
▁die	-10.8928
世纪	-10.8931
委	-10.8931
▁Madrid	-10.8932
▁communication	-10.8932
AS	-10.8933
▁classic	-10.8933
▁Alliance	-10.8934
who	-10.8935
▁designer	-10.8936
▁representation	-10.8937
▁Upper	-10.8938
▁gender	-10.8939
▁Off	-10.8939
試験	-10.8939
▁(2007)	-10.8939
▁Cathedral	-10.894
bach	-10.8943
▁Hay	-10.8943
▁Language	-10.8948
ックス	-10.8951
芸術	-10.8952
▁Murray	-10.8952
標準	-10.8953
▁flying	-10.8954
▁Franklin	-10.8955
受到	-10.8959
bre	-10.8959
電視	-10.896
chy	-10.8962
珠	-10.8964
▁參考文獻	-10.8964
させ	-10.8968
▁protest	-10.8972
▁greatest	-10.8978
寶	-10.8978
gra	-10.8979
▁Billy	-10.8986
▁Birmingham	-10.8986
▁Count	-10.8987
<	-10.8987
ique	-10.8989
?"	-10.8989
▁criticism	-10.8991
▁athletes	-10.8992
▁Judge	-10.8992
ban	-10.8992
esh	-10.8994
▁Iranian	-10.8996
(15	-10.8998
▁delivered	-10.9001
▁Carr	-10.9002
▁DJ	-10.9003
▁offensive	-10.9003
枝	-10.9007
▁organ	-10.901
状況	-10.9011
▁Chu	-10.9011
足球	-10.9011
ブラ	-10.9013
▁decade	-10.9016
▁hour	-10.9017
▁owners	-10.9017
hy	-10.9019
▁producers	-10.9021
▁Woman	-10.9022
背	-10.9022
倫	-10.9024
▁arrest	-10.9025
▁Trail	-10.903
▁Daily	-10.9031
lock	-10.9032
▁1893	-10.9033
▁Liverpool	-10.9033
関連	-10.9034
ew	-10.9036
▁description	-10.9037
▁fear	-10.9042
▁advantage	-10.9042
限	-10.9047
ビデオ	-10.9047
▁Serbia	-10.9049
▁charged	-10.9049
▁interests	-10.905
awa	-10.9051
▁Grade	-10.9051
met	-10.9052
料理	-10.9052
▁Artists	-10.9054
▁Movement	-10.9056
▁Defence	-10.9059
hood	-10.9059
节	-10.9061
飛行	-10.9062
▁provincial	-10.9064
gy	-10.9064
▁naval	-10.9065
▁conduct	-10.9066
▁crisis	-10.9067
▁Gra	-10.9067
组织	-10.9072
▁passengers	-10.9073
商品	-10.9075
▁philosophy	-10.9076
鹿	-10.9076
▁divisions	-10.9078
▁accident	-10.9079
▁rowspan	-10.9079
▁feed	-10.9079
岛	-10.9081
pu	-10.9081
禁	-10.9082
原作	-10.9082
▁1892	-10.9083
サイト	-10.9085
▁reaction	-10.9086
bridge	-10.9087
ash	-10.9091
▁appointment	-10.9093
自分の	-10.9094
las	-10.9094
▁defensive	-10.9095
转	-10.9096
▁regularly	-10.9099
日には	-10.9101
邊	-10.9101
vor	-10.9104
▁Brooklyn	-10.9106
▁universities	-10.9106
▁Fo	-10.9107
丘	-10.9107
地震	-10.9107
豪	-10.9107
▁valley	-10.9107
霊	-10.9107
▁ahead	-10.9108
▁1860	-10.9116
▁equivalent	-10.9117
▁rich	-10.9117
业	-10.912
▁Ze	-10.9123
舞台	-10.9126
国の	-10.9126
野球	-10.9128
▁Box	-10.9134
養	-10.9134
ified	-10.9135
▁Moths	-10.9137
アメリカ合衆国	-10.9138
▁Here	-10.9141
學校	-10.9142
IN	-10.9148
兄	-10.9149
▁Charlotte	-10.915
room	-10.9151
対応	-10.9154
▁sc	-10.9155
▁skills	-10.9155
▁Theater	-10.9157
ă	-10.9158
yer	-10.916
▁hill	-10.9162
湾	-10.9162
以後	-10.9164
bor	-10.9167
ean	-10.9169
工事	-10.9169
西部	-10.9171
▁southeast	-10.9172
1950	-10.9176
例如	-10.9183
(16	-10.9184
▁seems	-10.9184
▁attached	-10.9187
作戦	-10.9187
▁lands	-10.9188
言語	-10.9189
▁Rad	-10.9189
▁Rev	-10.9189
传	-10.919
▁disc	-10.9191
ケン	-10.9192
▁Yorkshire	-10.9193
目的	-10.9194
▁×	-10.9194
▁showing	-10.9195
wer	-10.9198
▁1891	-10.9199
els	-10.9199
▁1998,	-10.92
停止	-10.9201
▁Jon	-10.9201
▁standing	-10.9202
賢	-10.9204
麗	-10.9206
まる	-10.9207
▁anniversary	-10.9207
独	-10.9208
服務	-10.921
▁Es	-10.9213
出身の	-10.9215
▁Literature	-10.9217
改革	-10.9221
▁Wayne	-10.9221
▁medium	-10.9224
印度	-10.9228
普通	-10.9228
▁habitat	-10.9231
作为	-10.9232
父親	-10.9232
▁maintain	-10.9233
▁debuted	-10.9233
▁investment	-10.9235
权	-10.9236
▁Bat	-10.9237
▁Hunter	-10.9238
出版社	-10.924
ž	-10.9241
▁Dick	-10.9242
▁transition	-10.9243
▁goods	-10.9247
▁ensure	-10.9248
kg	-10.9248
▁leads	-10.9248
fiction	-10.9249
弱	-10.925
▁2002.	-10.9251
▁54	-10.9251
発行	-10.926
レー	-10.926
My	-10.9261
▁activist	-10.9261
込み	-10.9261
▁(2005)	-10.9262
▁user	-10.9264
自身の	-10.9268
▁drawn	-10.927
▁Islam	-10.927
▁boys	-10.9273
アップ	-10.9273
▁publishing	-10.9274
空間	-10.9276
br	-10.9279
▁Limited	-10.928
ire	-10.928
pha	-10.9281
洲	-10.9281
▁2.	-10.9285
enberg	-10.9287
▁spin	-10.9288
ウィ	-10.9289
▁homes	-10.929
▁Peru	-10.9291
。『	-10.9291
甘	-10.9292
▁easily	-10.9292
▁rejected	-10.9292
公共	-10.9294
問	-10.9295
理論	-10.9296
▁grounds	-10.9297
onia	-10.9301
ux	-10.9301
▁Kon	-10.9304
歩	-10.9306
鐵	-10.9309
較	-10.9309
fish	-10.9313
▁NY	-10.9313
▁charges	-10.9315
▁residential	-10.9315
▁Bengal	-10.9315
(2011	-10.9317
求	-10.9319
細胞	-10.932
▁cap	-10.932
▁Buck	-10.9321
高速	-10.9322
▁Ak	-10.9323
▁hip	-10.9326
柱	-10.9328
GA	-10.9329
ef	-10.9329
▁Online	-10.9334
▁基特峰	-10.9335
營	-10.9337
▁hundred	-10.9338
▁criticized	-10.934
员	-10.9345
仏	-10.9346
ys	-10.9347
評価	-10.9349
000	-10.935
代目	-10.935
▁racial	-10.9352
抗	-10.9354
▁pattern	-10.9356
▁factors	-10.9356
委員	-10.9358
▁occupation	-10.936
成員	-10.9361
▁let	-10.9366
▁defeating	-10.9371
刑	-10.9372
どう	-10.9372
▁survived	-10.9372
▁minute	-10.9374
様	-10.9378
擊	-10.9379
▁scientists	-10.938
▁license	-10.9385
▁items	-10.9386
タイム	-10.9386
▁defence	-10.9387
題	-10.9388
ダム	-10.9388
卒業	-10.9389
美術	-10.9389
▁Wars	-10.9389
毒	-10.9394
莱	-10.9396
round	-10.9396
太空监视	-10.9398
▁作曲	-10.9398
▁Father	-10.94
▁bands	-10.9401
▁admitted	-10.9404
▁Additionally	-10.9405
国道	-10.9409
SL	-10.9411
發現	-10.9411
OL	-10.9414
–0	-10.9414
▁Ren	-10.9415
洞	-10.9418
气	-10.9423
▁Lower	-10.9423
通過	-10.9427
EL	-10.9428
bat	-10.943
頃	-10.9431
aya	-10.9432
彈	-10.9432
view	-10.9433
試	-10.9434
墓	-10.9437
帯	-10.9437
▁Mediterranean	-10.9438
eva	-10.9439
▁theater	-10.9439
適	-10.9439
程度	-10.9442
gli	-10.9444
▁assumed	-10.9449
▁restored	-10.9449
▁(2006)	-10.9449
▁Unit	-10.945
а	-10.9452
TS	-10.9454
▁Mun	-10.9454
であるが	-10.9455
設	-10.9456
と同じ	-10.9456
▁par	-10.9459
▁tries	-10.946
▁Album	-10.946
For	-10.946
▁Through	-10.9461
整	-10.9462
商業	-10.9462
-21	-10.9463
冠軍	-10.9463
uc	-10.9464
▁legislation	-10.9464
大量	-10.9467
▁Jason	-10.9468
▁Authority	-10.9468
▁Century	-10.947
值	-10.947
観光	-10.947
ツアー	-10.947
▁businessman	-10.9472
▁Demographics	-10.9473
atus	-10.9474
ヨーロッパ	-10.9476
▁factor	-10.9482
1000	-10.9484
▁courses	-10.9485
▁Im	-10.9487
▁Sin	-10.9487
▁southwest	-10.9487
▁painted	-10.9491
▁shop	-10.9492
連載	-10.9493
月から	-10.9497
tern	-10.9499
▁Trophy	-10.9499
ところ	-10.9499
▁venues	-10.9502
-9	-10.9502
▁qualifying	-10.9502
▁romantic	-10.9503
▁その他	-10.9503
El	-10.9504
▁challenge	-10.9505
(2017	-10.951
▁Critical	-10.9511
温泉	-10.9515
▁Child	-10.9516
▁arrival	-10.9517
▁chemical	-10.9517
▁runner	-10.9517
▁Wolf	-10.9518
▁Ian	-10.9519
uda	-10.952
5,000	-10.952
▁replacement	-10.9522
積	-10.9523
uf	-10.9524
▁Honor	-10.9527
▁Even	-10.9527
彼	-10.9528
寄	-10.953
▁Labor	-10.953
sol	-10.9531
桜	-10.9531
▁credited	-10.9532
返	-10.9534
▁Bro	-10.9535
メン	-10.9535
完	-10.9536
▁driving	-10.9537
研	-10.9538
▁Pictures	-10.9539
オリンピック	-10.9542
▁Fine	-10.9544
▁Horse	-10.9546
▁roads	-10.9548
gram	-10.9549
▁Mil	-10.9549
建筑	-10.9552
▁policies	-10.9554
▁Luis	-10.9555
▁Publications	-10.9557
▁Kings	-10.9558
▁Milan	-10.9558
復	-10.9558
▁notably	-10.9561
sis	-10.9563
bri	-10.9566
分析	-10.9566
刺	-10.9568
戶	-10.9568
陵	-10.9569
▁didn	-10.9569
▁アメリカ合衆国の	-10.957
alis	-10.9571
再び	-10.9574
▁humans	-10.9576
前に	-10.9577
過去	-10.9578
▁Pin	-10.9579
大統領	-10.958
LE	-10.958
日まで	-10.9581
予定	-10.9583
効果	-10.9587
▁prisoners	-10.9588
▁Wing	-10.9589
▁Release	-10.959
▁Fr	-10.9593
ニア	-10.9593
営業	-10.9595
▁caught	-10.9596
菌	-10.9601
ual	-10.9601
▁why	-10.9602
塚	-10.9605
▁Politics	-10.9607
给	-10.9608
ave	-10.9608
xi	-10.9609
專	-10.9611
▁Auto	-10.9611
▁victims	-10.9612
▁Matthew	-10.9612
▁(2008)	-10.9613
▁高	-10.9617
までの	-10.962
▁Taxa	-10.962
▁Ring	-10.9623
▁typical	-10.9624
▁save	-10.9624
▁SS	-10.9625
!"	-10.9628
sp	-10.9631
▁Trump	-10.9632
▁wounded	-10.9635
▁purposes	-10.9635
チェ	-10.9636
社會	-10.9636
▁businesses	-10.9638
ソフト	-10.9638
▁Barry	-10.9638
▁Technical	-10.964
CA	-10.9642
认为	-10.9642
▁assistance	-10.9643
▁wine	-10.9644
▁membership	-10.9645
皇帝	-10.9646
▁measure	-10.9648
▁Late	-10.9648
▁organisation	-10.9648
组	-10.965
▁56	-10.9656
▁mix	-10.9657
▁Guy	-10.9657
▁1997,	-10.9658
亜	-10.9659
魯	-10.9661
本線	-10.9663
非常	-10.9666
初代	-10.9669
uli	-10.967
9%	-10.9671
UN	-10.9672
会長	-10.9674
▁Monte	-10.9675
log	-10.9678
▁demand	-10.9678
なし	-10.9679
▁stopped	-10.9679
▁Wei	-10.9682
▁stores	-10.9684
lus	-10.9684
滑	-10.9686
▁4-	-10.9687
するが	-10.969
▁Delhi	-10.969
▁Gray	-10.9692
益	-10.9692
際	-10.9692
陈	-10.9692
▁mining	-10.9692
▁Ji	-10.9693
▁depth	-10.9693
先生	-10.9694
機械	-10.9694
▁Broadway	-10.9696
Ka	-10.9697
ites	-10.9698
卻	-10.9699
▁Current	-10.9699
他们	-10.9701
▁learn	-10.9704
kel	-10.9705
int	-10.9705
当初は	-10.9706
▁Selected	-10.9706
▁Edition	-10.9706
▁Pur	-10.9707
静	-10.9707
ホテル	-10.9708
实	-10.9708
报	-10.9709
▁regiment	-10.971
▁Tai	-10.9713
これらの	-10.9714
▁gets	-10.9715
ami	-10.9719
▁1887	-10.9719
▁Lan	-10.9719
▁Orleans	-10.972
▁township	-10.9722
オン	-10.9725
規定	-10.9735
–15	-10.9735
(2012	-10.9736
▁nothing	-10.9738
角色	-10.9739
含	-10.9743
▁guitarist	-10.9744
ides	-10.9744
▁separated	-10.9745
▁talk	-10.9748
▁Low	-10.9748
▁rain	-10.975
uff	-10.975
(2016	-10.975
を務めた	-10.9751
▁restaurant	-10.9753
クラス	-10.9753
▁Standard	-10.9754
寧	-10.9755
▁suicide	-10.9755
▁Control	-10.9756
▁significantly	-10.9756
▁streets	-10.9756
▁Parish	-10.9758
▁cited	-10.9758
▁looking	-10.9762
▁PA	-10.9763
▁Pradesh	-10.9764
思想	-10.9764
▁(2009)	-10.9768
孔	-10.977
FF	-10.977
▁suit	-10.9771
▁経歴	-10.9773
ben	-10.9776
▁Gary	-10.9776
▁1888	-10.9776
AD	-10.9777
IP	-10.9777
ダイ	-10.9778
▁skin	-10.978
▁journey	-10.9782
▁Nigeria	-10.9783
▁参见	-10.9785
▁broad	-10.9785
▁Hindu	-10.9786
月には	-10.9786
▁Medalists	-10.9786
▁Armenian	-10.9788
▁Primary	-10.9789
(2015	-10.9791
選挙	-10.9792
far	-10.9793
▁limit	-10.9795
▁examples	-10.9798
▁Species	-10.9803
▁steam	-10.9806
Go	-10.9812
空港	-10.9812
sia	-10.9813
风	-10.9814
▁arranged	-10.9814
▁1885	-10.9815
▁heritage	-10.9818
▁routes	-10.982
名古屋	-10.9821
EC	-10.9821
▁parliament	-10.9823
▁Wal	-10.9827
ular	-10.9829
▁Mah	-10.983
▁picture	-10.983
–20	-10.9832
层	-10.9833
おり	-10.9833
製品	-10.9834
▁fruit	-10.9835
gle	-10.9838
▁memorial	-10.9839
▁starred	-10.9841
hal	-10.9843
▁Nevada	-10.9845
▁Zone	-10.9845
柏	-10.9847
▁Glasgow	-10.9847
などで	-10.9848
▁protected	-10.985
▁Richmond	-10.9851
▁sections	-10.9853
etti	-10.9853
▁executed	-10.9854
ico	-10.9855
聲	-10.9856
付け	-10.9856
▁VI	-10.9857
インド	-10.986
▁nor	-10.9861
▁cousin	-10.9863
▁Classic	-10.9865
▁51	-10.9866
RA	-10.9867
▁Raj	-10.9868
ID	-10.9868
銃	-10.9868
床	-10.9869
▁duty	-10.9869
▁experienced	-10.987
▁designs	-10.9872
特殊	-10.9872
▁Elementary	-10.9872
▁Hav	-10.9875
▁Victorian	-10.9876
▁Footballers	-10.9876
運営	-10.9877
▁difference	-10.9878
(2013	-10.988
but	-10.988
假	-10.988
乳	-10.9884
▁DNA	-10.9884
指揮	-10.989
ワールド	-10.989
▁commune	-10.9891
▁Computer	-10.9892
▁Cooper	-10.9895
▁accompanied	-10.9896
▁(2004)	-10.9897
▁understanding	-10.9897
▁2001.	-10.9897
▁raise	-10.9898
だったが	-10.9899
RI	-10.9901
▁Small	-10.9901
▁Rivers	-10.9901
クス	-10.9903
堀	-10.9903
学部	-10.9907
(2018	-10.9908
▁Cole	-10.9909
ui	-10.991
matic	-10.9911
▁Fan	-10.9911
▁door	-10.9913
古代	-10.9913
▁retained	-10.9914
▁Future	-10.9916
▁57	-10.9917
▁dating	-10.9923
貞	-10.9923
ili	-10.9925
place	-10.9925
占	-10.9926
ジョ	-10.9927
▁persons	-10.9929
aba	-10.9931
の大	-10.9933
You	-10.9935
▁fly	-10.9937
刘	-10.9942
▁Performance	-10.9942
にあった	-10.9943
▁Profile	-10.9946
薩	-10.9946
▁Kh	-10.9947
▁adaptation	-10.9947
▁definition	-10.9948
▁formally	-10.9948
▁Action	-10.9948
▁お	-10.995
学名	-10.995
ミュージック	-10.9951
王国	-10.9954
勇	-10.9954
▁testing	-10.9958
▁poem	-10.9959
▁mean	-10.996
▁Mitchell	-10.996
▁Evans	-10.9963
所以	-10.9965
九州	-10.9966
▁fired	-10.9969
▁1996,	-10.9969
襲	-10.997
ement	-10.997
aga	-10.9973
ライト	-10.9975
▁institution	-10.9975
UTC	-10.9976
▁arm	-10.9977
▁2000.	-10.9979
▁pe	-10.9979
などを	-10.9981
▁Nan	-10.9981
hara	-10.9982
▁operates	-10.9984
営	-10.9986
▁Bachelor	-10.9988
折	-10.9988
▁Alaska	-10.9988
▁Mother	-10.999
▁Private	-10.9991
▁Magic	-10.9991
col	-10.9992
▁window	-10.9993
▁manga	-10.9994
▁(2011)	-10.9994
バック	-10.9995
軽	-10.9995
▁evening	-10.9995
▁hot	-10.9996
控制	-10.9998
▁vessels	-10.9998
そのため	-10.9999
chin	-10.9999
健康	-11
▁Bri	-11.0002
していたが	-11.0005
後來	-11.0005
終	-11.0006
▁journalists	-11.0006
縁	-11.0009
由于	-11.0012
▁Rod	-11.0017
▁Chamber	-11.0017
▁coverage	-11.0017
ridge	-11.0018
操作	-11.002
SO	-11.0022
▁stream	-11.0022
▁instruments	-11.0022
▁沿革	-11.0023
▁Tigers	-11.0024
▁Wu	-11.0025
▁stands	-11.0025
命名	-11.0028
nar	-11.0029
▁selling	-11.0031
til	-11.0032
であったが	-11.0033
かつて	-11.0033
▁el	-11.0035
CC	-11.0038
你	-11.0039
▁chamber	-11.004
などが	-11.0042
▁mark	-11.0045
▁gene	-11.0045
▁meters	-11.0047
ema	-11.0047
日本テレビ	-11.0048
▁grow	-11.0049
All	-11.005
sel	-11.0053
楊	-11.0055
トゥ	-11.0056
▁Soul	-11.0056
▁Bla	-11.0056
:「	-11.0058
▁manufacturing	-11.0058
anda	-11.0058
▁stood	-11.0064
▁hits	-11.0067
分類	-11.007
▁Blues	-11.0071
▁Ny	-11.0073
背景	-11.0073
▁Warren	-11.0074
メイン	-11.0074
间	-11.0077
▁Tra	-11.0077
职	-11.0079
斯特	-11.0081
BC	-11.0081
▁Number	-11.0086
▁audio	-11.0088
▁Ty	-11.0089
1993	-11.0089
(2009	-11.0089
新しい	-11.0091
▁Charlie	-11.0094
▁auto	-11.0094
厚	-11.0096
▁fair	-11.0096
▁extremely	-11.0102
住宅	-11.0103
▁duties	-11.0105
性格	-11.0106
溪	-11.0107
▁Assistant	-11.0107
▁Borough	-11.0108
▁mental	-11.0109
幼	-11.011
周辺	-11.011
hall	-11.0113
辛	-11.0113
写真	-11.0114
LP	-11.0115
▁Rick	-11.0117
▁Benjamin	-11.0117
aceae	-11.0118
▁slow	-11.0118
SI	-11.0119
向け	-11.0124
ユー	-11.0125
造成	-11.0125
700	-11.0125
名は	-11.0128
▁otherwise	-11.0129
かつ	-11.0129
▁lists	-11.0129
ゆ	-11.0132
Car	-11.0132
▁Jerusalem	-11.0134
story	-11.0136
輸送	-11.0136
▁Market	-11.0138
▁element	-11.0138
振	-11.0139
▁Alice	-11.0141
評	-11.0141
次郎	-11.0145
▁em	-11.0146
▁Common	-11.0148
▁Warner	-11.0149
太陽	-11.015
国立	-11.0153
▁elevation	-11.0154
▁concerns	-11.0159
議会	-11.0161
▁stages	-11.0162
▁Weekly	-11.0163
▁Sara	-11.0163
▁Marc	-11.0163
▁gr	-11.0163
桂	-11.0166
May	-11.0167
▁linked	-11.0168
▁costs	-11.0168
▁rivers	-11.017
▁rooms	-11.017
できない	-11.0173
▁carrying	-11.0173
ister	-11.0174
区域	-11.0174
ウス	-11.0176
▁Barbara	-11.0176
▁Fer	-11.0178
▁municipalities	-11.0179
▁Ivan	-11.018
▁mode	-11.0183
を見	-11.0185
1945	-11.0187
▁Bernard	-11.0187
▁fictional	-11.0188
▁Discography	-11.0188
eta	-11.0188
▁Philippine	-11.0189
▁safe	-11.0192
单	-11.0193
▁judges	-11.0194
▁Site	-11.0194
▁Vancouver	-11.0194
hor	-11.0195
▁crowd	-11.0202
姿	-11.0203
▁returns	-11.0205
耶	-11.0205
▁scope	-11.0205
▁filed	-11.0207
▁Stars	-11.0208
选	-11.021
cker	-11.0212
▁classified	-11.0213
lor	-11.0214
▁Freedom	-11.0215
▁Fellow	-11.0217
▁Socialist	-11.0218
最後の	-11.0218
▁newspapers	-11.0219
▁bringing	-11.0223
▁clean	-11.0225
店舗	-11.0226
▁windows	-11.0227
▁document	-11.0227
▁1886	-11.0228
人気	-11.023
等の	-11.0232
改造	-11.0233
寿	-11.0234
▁(2010)	-11.0234
とき	-11.0234
(2014	-11.0234
▁cable	-11.0238
トップ	-11.0239
▁wild	-11.0239
▁(2003)	-11.0241
▁cinema	-11.0242
sburg	-11.0242
▁Rail	-11.0243
ches	-11.0245
冷	-11.0246
itz	-11.0246
▁scheme	-11.0247
訓練	-11.0247
Vi	-11.0247
▁responsibility	-11.025
主席	-11.0257
防衛	-11.026
lands	-11.0261
▁require	-11.0261
宣布	-11.0261
▁主な	-11.0264
had	-11.0264
▁courts	-11.0266
1994	-11.0267
▁監督	-11.0269
such	-11.0269
hol	-11.0276
▁Mari	-11.0277
▁1999.	-11.0278
▁headed	-11.0279
ヴェ	-11.028
鲁	-11.0281
-15	-11.0282
▁Card	-11.0285
▁tie	-11.0288
ties	-11.0294
▁represents	-11.0294
▁Caribbean	-11.0295
▁$3	-11.0296
▁dog	-11.0297
▁coastal	-11.0302
子の	-11.0302
▁53	-11.0302
最初の	-11.0302
最も	-11.0302
首次	-11.0302
須	-11.0303
lle	-11.0307
▁favor	-11.0308
槍	-11.0308
然	-11.0309
ES	-11.0312
童	-11.0314
▁kg	-11.0318
タイトル	-11.0319
十二	-11.0323
burn	-11.0324
▁Orange	-11.0325
▁Nebraska	-11.0326
▁fixed	-11.0327
連続	-11.0327
▁medieval	-11.0329
▁artistic	-11.033
▁Code	-11.0331
▁aspects	-11.0331
ブリ	-11.0334
▁Secret	-11.0335
rio	-11.0335
オープン	-11.0335
重要	-11.0336
▁bit	-11.0339
担任	-11.0339
▁tall	-11.0342
▁Companies	-11.0345
yama	-11.0347
樓	-11.0349
yr	-11.0349
150	-11.0351
ct	-11.0353
▁Andy	-11.0354
▁Dal	-11.0355
▁Fish	-11.0357
▁agencies	-11.0357
▁Gabriel	-11.0361
类	-11.0361
ミー	-11.0362
▁Ac	-11.0364
砂	-11.0364
life	-11.0365
▁Storm	-11.0366
▁Hawaii	-11.0366
▁金	-11.0368
育	-11.037
ves	-11.037
▁Flight	-11.037
律	-11.0371
▁ownership	-11.0371
としている	-11.0371
後は	-11.0373
ヴ	-11.0381
▁constant	-11.0383
前往	-11.0386
▁Apple	-11.0386
ois	-11.0386
▁intersection	-11.0391
議	-11.0392
シティ	-11.0392
▁storage	-11.0392
▁assault	-11.0394
▁Wang	-11.0395
▁Colombia	-11.0395
▁Muhammad	-11.0397
▁mobile	-11.0404
▁poets	-11.0406
交流	-11.0406
▁devices	-11.0409
游戏	-11.0409
児	-11.041
琴	-11.0411
▁scholar	-11.0412
▁https	-11.0412
ction	-11.0414
国内	-11.0415
▁popularity	-11.0421
▁peaked	-11.0422
▁mouth	-11.0424
プロジェクト	-11.0424
gin	-11.0424
▁survey	-11.0425
cin	-11.0427
fin	-11.0428
▁manner	-11.0428
▁covering	-11.0428
▁Costa	-11.043
agh	-11.0431
致	-11.0433
アナウンサー	-11.0434
复	-11.0436
▁filmed	-11.0438
▁生平	-11.044
▁Bible	-11.0442
顔	-11.0443
ジャパン	-11.0444
ガス	-11.0444
▁Parker	-11.0444
▁camera	-11.0445
under	-11.0445
ern	-11.0447
▁Yan	-11.045
▁Gal	-11.045
▁Educational	-11.045
BA	-11.0455
most	-11.0455
▁eliminated	-11.0457
聞	-11.0457
▁Faculty	-11.0459
艇	-11.046
act	-11.0461
▁Nicholas	-11.0462
▁Char	-11.0465
▁Baptist	-11.0465
學生	-11.0467
ローマ	-11.0469
▁collections	-11.047
▁Ancient	-11.047
ments	-11.0472
▁credit	-11.0476
▁Kor	-11.0477
▁1884	-11.0478
▁nomination	-11.0478
▁strategy	-11.0479
▁Zi	-11.0479
web	-11.0479
▁Qu	-11.0481
▁(6	-11.0481
final	-11.0482
▁horror	-11.0482
illo	-11.0483
▁Helen	-11.0484
▁abuse	-11.0486
ming	-11.0487
ces	-11.049
▁learned	-11.0491
鶴	-11.0491
哥	-11.0494
人的	-11.0496
chan	-11.0497
叶	-11.0498
ess	-11.05
▁Branch	-11.05
▁cold	-11.0501
▁Jonathan	-11.0503
脱	-11.0504
▁prepared	-11.0507
ters	-11.0507
▁Bio	-11.051
剛	-11.051
▁message	-11.051
▁(2012)	-11.0511
▁Buffalo	-11.0511
プロデューサー	-11.0513
▁Google	-11.0514
▁opinion	-11.0514
サッカー	-11.0514
ates	-11.0514
见	-11.0515
uro	-11.0516
play	-11.0517
▁attorney	-11.0517
あるいは	-11.0518
▁infrastructure	-11.052
沃	-11.0522
プレイ	-11.0524
▁signing	-11.0525
▁Hell	-11.0527
uma	-11.0528
(2019	-11.053
heim	-11.0534
▁tied	-11.0537
▁1995,	-11.0539
some	-11.054
▁differences	-11.054
パリ	-11.0541
▁turns	-11.0541
▁Sho	-11.0541
▁Afghanistan	-11.0543
ブルー	-11.0543
-11	-11.0544
億	-11.0544
▁Cre	-11.0547
桃	-11.0548
▁Em	-11.0551
法国	-11.0556
▁relative	-11.0556
▁ratio	-11.0562
▁worth	-11.0562
▁bad	-11.0564
▁Alberta	-11.0566
▁1881	-11.0572
oh	-11.0574
▁Canal	-11.0576
』『	-11.0577
▁58	-11.0577
メートル	-11.0578
▁cm	-11.0578
▁r	-11.0579
tive	-11.0579
▁Jam	-11.0582
メーカー	-11.0582
get	-11.0582
yi	-11.0584
秦	-11.0585
▁Had	-11.0585
▁Fleet	-11.0585
▁link	-11.0586
▁hosts	-11.0587
▁Fi	-11.0588
浮	-11.0593
具有	-11.0594
▁references	-11.0596
申	-11.0596
▁Greater	-11.0596
▁Bas	-11.0599
においては	-11.06
▁stayed	-11.06
▁degrees	-11.0602
徐	-11.0604
セン	-11.0605
▁cabinet	-11.0605
▁celebrated	-11.0608
▁amateur	-11.0608
ME	-11.0608
▁Rangers	-11.0609
統一	-11.0609
▁Ce	-11.061
rah	-11.061
に変更	-11.0612
▁achieve	-11.0613
(『	-11.0615
(2010	-11.0618
▁papers	-11.0619
▁rival	-11.062
▁parliamentary	-11.0623
▁sort	-11.0623
▁struck	-11.0624
遺	-11.0625
▁SA	-11.0625
頂	-11.0625
TO	-11.0626
せん	-11.0627
▁resolution	-11.0627
iana	-11.0631
植	-11.0636
Di	-11.0638
▁Mix	-11.064
▁magazines	-11.0641
▁1850	-11.0643
浪	-11.0645
▁Symphony	-11.0647
庭	-11.0647
人類	-11.0647
クラ	-11.0647
▁vi	-11.0648
▁Kra	-11.0648
SD	-11.0649
▁progress	-11.065
▁Vel	-11.0652
ø	-11.0653
▁Collins	-11.0653
▁electoral	-11.0656
展示	-11.0659
▁symbol	-11.066
▁sun	-11.0661
▁ban	-11.0662
SF	-11.0662
爆	-11.0664
设计	-11.0664
▁Virgin	-11.0665
ido	-11.0666
▁Nature	-11.0667
かい	-11.0667
thy	-11.0667
▁affairs	-11.067
inae	-11.067
▁childhood	-11.0673
ディー	-11.0676
▁roughly	-11.0676
卫	-11.0676
ante	-11.0679
▁schedule	-11.0679
▁Architecture	-11.0679
▁flows	-11.0681
柄	-11.0681
ras	-11.0683
▁Recipients	-11.0685
▁territories	-11.0686
▁Trinity	-11.0686
ものである	-11.0688
▁Wil	-11.0689
▁weekly	-11.069
▁subjects	-11.0692
▁endemic	-11.0692
ED	-11.0696
割	-11.0696
vid	-11.07
▁Tech	-11.07
鏡	-11.0701
熊	-11.0704
粉	-11.0705
▁teachers	-11.0706
専門	-11.0706
▁Saudi	-11.0706
大陸	-11.071
增	-11.0712
関西	-11.0713
▁practices	-11.0717
▁1865	-11.0717
▁sentenced	-11.0717
番号	-11.0719
▁Artist	-11.0721
太平洋	-11.0722
▁requirements	-11.0722
スク	-11.0722
▁Mir	-11.0723
pping	-11.0723
TC	-11.0724
▁59	-11.0724
▁portrayed	-11.0724
▁biggest	-11.0725
▁medals	-11.0727
苏	-11.0729
▁Motor	-11.0731
惠	-11.0731
命令	-11.0732
▁Kam	-11.0732
ON	-11.0734
▁Bristol	-11.0735
▁string	-11.0736
横浜	-11.0738
▁premiere	-11.0739
兴	-11.074
▁1864	-11.0742
中部	-11.0743
リリース	-11.0744
▁regime	-11.0745
▁Chan	-11.0746
aud	-11.0746
▁Contemporary	-11.0748
▁interested	-11.075
▁suggests	-11.075
セル	-11.0751
不明	-11.0751
步	-11.0753
負	-11.0753
▁Kirk	-11.0753
▁components	-11.0755
母親	-11.0756
▁1994,	-11.0757
PO	-11.0757
▁Oak	-11.0759
農業	-11.0759
▁indicate	-11.0761
▁rates	-11.0762
▁mi	-11.0766
韓	-11.0766
ドン	-11.0766
▁secure	-11.0767
▁decline	-11.0768
▁Around	-11.0769
▁CBS	-11.0774
IA	-11.0775
▁penalty	-11.0775
▁h	-11.0775
▁moth	-11.0776
1999	-11.0776
供	-11.0779
没	-11.0779
▁Lost	-11.0783
形態	-11.0785
▁videos	-11.0786
ざ	-11.0786
▁Manhattan	-11.0788
▁landscape	-11.0789
PP	-11.079
boy	-11.079
ichi	-11.0791
▁Horn	-11.0792
▁cup	-11.0792
▁plane	-11.0793
OP	-11.0796
▁bomb	-11.0798
予	-11.0798
(17	-11.0799
later	-11.0799
んで	-11.0801
暴	-11.0801
▁appeal	-11.0801
▁plus	-11.0803
▁cent	-11.0804
bb	-11.0805
▁soil	-11.0806
▁option	-11.0809
mis	-11.081
▁historians	-11.0814
▁Knights	-11.0815
▁Robin	-11.0815
ably	-11.082
▁Distribution	-11.0821
トル	-11.0821
ović	-11.0822
▁counties	-11.0822
中学	-11.0823
▁Tang	-11.0824
▁guide	-11.0825
.”	-11.0825
部長	-11.0826
pel	-11.0827
▁kingdom	-11.0828
▁capable	-11.0829
吾	-11.083
yne	-11.0831
▁feel	-11.0832
全体	-11.0835
cent	-11.0835
▁colour	-11.0837
然而	-11.0837
葛	-11.0841
▁Hope	-11.0842
ult	-11.0843
犯罪	-11.0843
▁NBC	-11.0846
組合	-11.0846
奏	-11.0847
arch	-11.0848
晴	-11.085
CL	-11.0852
▁technique	-11.0852
娜	-11.0852
判	-11.0853
iti	-11.0855
▁Neu	-11.0856
1995	-11.0856
▁banks	-11.0856
自己的	-11.0857
▁transmission	-11.0861
ota	-11.0862
ティー	-11.0864
のための	-11.0864
▁panel	-11.0866
▁Mars	-11.0866
▁dated	-11.0867
セット	-11.0868
▁passage	-11.0869
▁mo	-11.0869
定義	-11.0871
▁pa	-11.0873
▁Minor	-11.0873
▁(2001)	-11.0874
▁Population	-11.0874
▁Hard	-11.0875
▁66	-11.0876
lit	-11.0878
憲	-11.0878
▁ill	-11.0878
▁Cuba	-11.088
▁Attorney	-11.0881
▁ago	-11.0881
shire	-11.0883
▁daughters	-11.0885
万円	-11.0885
德国	-11.089
uz	-11.0891
烏	-11.0891
▁forests	-11.0891
▁Stock	-11.0894
治療	-11.0894
nce	-11.0895
宁	-11.09
▁Diocese	-11.0901
ito	-11.0901
▁finals	-11.0903
▁artillery	-11.0904
▁1861	-11.0906
▁file	-11.0907
▁Buddhist	-11.0908
▁emergency	-11.0908
rell	-11.0908
の娘	-11.0909
▁1.	-11.091
运动员	-11.0911
ax	-11.0911
▁championships	-11.0912
▁processes	-11.0914
▁CA	-11.0915
shaped	-11.0916
死去	-11.0918
頼	-11.092
▁phone	-11.0921
▁Ter	-11.0922
▁poverty	-11.0924
解散	-11.0925
▁Universal	-11.0925
▁(14	-11.0928
▁MA	-11.0928
▁buy	-11.0929
必要	-11.0929
▁convicted	-11.093
行き	-11.0931
Th	-11.0934
▁Turner	-11.0935
▁Jin	-11.0935
▁flowers	-11.0939
▁なお	-11.094
寫	-11.0941
▁Med	-11.0943
▁Nation	-11.0944
艦隊	-11.0944
▁Ap	-11.0945
未来	-11.0945
tom	-11.0946
▁SR	-11.0948
▁assembly	-11.0948
指導	-11.0949
▁Penn	-11.0949
▁Tel	-11.0952
紫	-11.0952
▁instance	-11.0952
弁	-11.0953
▁competing	-11.0955
née	-11.0955
▁Jerry	-11.0956
营	-11.0956
▁indigenous	-11.0958
▁disestablished	-11.0958
▁Leon	-11.0962
tain	-11.0967
▁Bull	-11.0967
ving	-11.0968
一度	-11.0968
▁Beat	-11.0968
▁(2002)	-11.0972
▁Electric	-11.0973
▁1992,	-11.0973
レッド	-11.0974
接受	-11.0975
arm	-11.0976
▁eighth	-11.0978
PR	-11.0979
▁Let	-11.0979
Su	-11.0981
▁Cy	-11.0982
▁channels	-11.0983
(*	-11.0984
▁Sor	-11.0984
ボン	-11.0988
▁tail	-11.0989
另外	-11.0989
▁Ry	-11.0991
版本	-11.0992
載	-11.0993
尊	-11.0994
▁heads	-11.0994
▁task	-11.0998
▁chapter	-11.0998
▁fund	-11.1
▁explained	-11.1001
▁5:	-11.1005
scale	-11.1005
▁Artillery	-11.1005
强	-11.1006
ッシュ	-11.1008
▁patrol	-11.1008
▁entertainment	-11.1009
▁Systems	-11.1009
inus	-11.1009
ジャー	-11.1011
以上の	-11.1014
建造	-11.1014
▁graduating	-11.1015
▁mar	-11.1017
楼	-11.1017
Bar	-11.1021
▁locomotives	-11.1024
▁sum	-11.1025
chen	-11.1025
▁nations	-11.1025
▁appearing	-11.1028
▁adding	-11.1029
逃	-11.1031
▁app	-11.1031
本部	-11.1032
▁controversy	-11.1032
▁ministers	-11.1033
lee	-11.1035
▁Voivodeship	-11.1036
グラ	-11.1036
anti	-11.1038
▁Ker	-11.104
▁1863	-11.1043
ough	-11.1045
▁meets	-11.1048
▁Meanwhile	-11.1049
▁Bru	-11.1051
比賽	-11.1052
ます	-11.1052
▁Snow	-11.1053
▁margin	-11.1053
によると	-11.1055
▁duo	-11.1056
▁Ob	-11.1057
に対し	-11.1057
▁lieutenant	-11.1059
hai	-11.1062
▁Croatian	-11.1062
cul	-11.1063
▁Original	-11.1064
▁Kas	-11.1065
ech	-11.1068
▁replacing	-11.1068
▁weekend	-11.1071
▁Set	-11.1072
▁(2013)	-11.1073
▁seconds	-11.1073
▁1862	-11.1075
▁Herbert	-11.1075
發生	-11.1076
▁influential	-11.1076
電気	-11.1077
裡	-11.1078
▁CE	-11.1078
▁genre	-11.1079
祐	-11.108
▁threat	-11.108
▁thousands	-11.1081
itch	-11.1082
▁Saints	-11.1082
▁proper	-11.1083
das	-11.1084
預	-11.1085
▁Rain	-11.1086
=9	-11.1086
▁completion	-11.1086
▁walk	-11.1088
▁Americans	-11.1088
任何	-11.1089
▁Disc	-11.109
▁controversial	-11.1093
イル	-11.1093
▁clan	-11.1094
ía	-11.1094
tch	-11.1096
▁Lloyd	-11.1097
CS	-11.1098
▁lay	-11.1098
▁AM	-11.11
▁Pet	-11.1101
▁perhaps	-11.1103
▁proposal	-11.1105
▁frame	-11.1105
计划	-11.1107
ベン	-11.1107
發行	-11.1108
▁authors	-11.111
▁offering	-11.1113
とう	-11.1115
▁Bern	-11.1115
▁relief	-11.1117
▁declined	-11.1118
▁ad	-11.1118
軍の	-11.1119
報道	-11.1121
▁count	-11.1121
▁branches	-11.1122
▁temporary	-11.1123
▁squadron	-11.1123
jar	-11.1125
招	-11.1125
テレビ東京	-11.1127
▁Originally	-11.1127
の一つ	-11.1129
▁Charts	-11.113
ポイント	-11.1131
现	-11.1131
▁photography	-11.1134
▁Writing	-11.1134
▁Draft	-11.1134
▁1878	-11.1135
lat	-11.1135
▁suspended	-11.1136
▁Industrial	-11.1136
Mi	-11.1138
消	-11.1139
▁Falls	-11.1141
▁genetic	-11.1143
辺	-11.1143
▁Bass	-11.1143
スキー	-11.1143
軸	-11.1144
医療	-11.1145
同盟	-11.1145
ハウス	-11.1146
▁Communications	-11.1146
▁Phoenix	-11.1147
▁vision	-11.1148
▁Au	-11.1149
▁Ay	-11.1149
–12	-11.1151
分布	-11.1151
▁Por	-11.1152
▁Mus	-11.1153
▁railroad	-11.1154
表記	-11.1155
ering	-11.1156
を持ち	-11.1158
OR	-11.1159
▁jurisdiction	-11.1162
On	-11.1164
▁Vincent	-11.1165
之后	-11.1166
发展	-11.1168
東北	-11.117
team	-11.1172
红	-11.1174
▁1997.	-11.1176
▁requires	-11.1177
のか	-11.118
经济	-11.118
los	-11.1182
▁chapel	-11.1182
▁Arabic	-11.1183
Un	-11.119
▁Cities	-11.1191
▁hearing	-11.1192
▁Stan	-11.1193
▁rescue	-11.1193
▁Kil	-11.1195
▁drop	-11.1196
rate	-11.1199
▁mountains	-11.1199
een	-11.12
put	-11.12
隻	-11.1201
選舉	-11.1201
▁boundary	-11.1204
用の	-11.1206
▁losses	-11.1206
いい	-11.1206
▁strongly	-11.1206
▁sa	-11.1208
高い	-11.1209
▁Oliver	-11.1212
筋	-11.1213
ップ	-11.1213
▁Train	-11.1213
▁involvement	-11.1214
理由	-11.1215
共有	-11.122
mic	-11.1222
単	-11.1223
pet	-11.1226
▁falls	-11.1227
迫	-11.1228
▁Bol	-11.1229
ral	-11.1229
▁Data	-11.1232
記載	-11.1235
1992	-11.1236
▁fishing	-11.1237
▁soft	-11.1237
将軍	-11.1238
飾	-11.124
筆	-11.124
▁poems	-11.124
法國	-11.1245
▁volumes	-11.1247
▁1998.	-11.1247
▁soldier	-11.1248
}-	-11.1248
▁print	-11.125
aff	-11.1251
▁eyes	-11.1252
▁doctor	-11.1252
▁Defunct	-11.1253
▁Micro	-11.1253
▁percussion	-11.1254
▁Brand	-11.1254
デジタル	-11.1255
▁Pas	-11.1255
NO	-11.1255
▁Croatia	-11.1256
▁tape	-11.1256
▁Anglo	-11.1257
動畫	-11.1257
带	-11.1257
▁Territory	-11.1258
▁crash	-11.126
協	-11.1261
グル	-11.1261
▁(2014)	-11.1262
▁alleged	-11.1263
abad	-11.1263
只有	-11.1265
ジン	-11.1267
▁solution	-11.1267
目標	-11.1268
hen	-11.1268
▁Cam	-11.1269
wal	-11.127
▁uncle	-11.1271
▁bid	-11.1273
▁1882	-11.1275
▁ruling	-11.1277
首都	-11.1277
茨	-11.1278
海岸	-11.1278
▁cards	-11.128
▁Chang	-11.1281
▁RAF	-11.1282
本社	-11.1282
巨	-11.1284
主任	-11.1284
▁Pol	-11.1284
飯	-11.1285
耳	-11.1286
▁Giants	-11.1288
▁honour	-11.1289
▁Fri	-11.129
▁CO	-11.1292
▁mile	-11.1292
はこの	-11.1295
▁participation	-11.1296
待	-11.1296
的人	-11.1298
▁Salt	-11.1299
▁Policy	-11.13
▁Dur	-11.1301
述	-11.1301
内に	-11.1305
▁seed	-11.1306
暗	-11.1306
▁Protestant	-11.1308
戦で	-11.1309
▁mono	-11.1309
坊	-11.131
▁Chen	-11.1311
參與	-11.1312
%	-11.1313
万人	-11.1314
▁studying	-11.1314
(2008	-11.1315
vers	-11.1317
ij	-11.1318
▁grant	-11.1323
▁benefit	-11.1325
▁Bird	-11.1325
象	-11.1327
中山	-11.1327
KO	-11.1327
鋼	-11.1328
【	-11.1328
tia	-11.1328
自分	-11.1333
売	-11.1333
▁Municipal	-11.1334
実施	-11.1336
▁Persian	-11.1337
▁earth	-11.1337
▁Mis	-11.1337
▁finding	-11.134
歐	-11.1341
乙	-11.1342
rock	-11.1343
江戸	-11.1345
▁Nam	-11.1346
儀	-11.1347
戴	-11.1348
ショー	-11.135
▁swimming	-11.1352
▁statue	-11.1354
▁earning	-11.1355
談	-11.1356
シア	-11.1357
▁Nor	-11.1357
▁Commissioner	-11.1357
RT	-11.1358
▁Barcelona	-11.1358
関東	-11.1358
▁Bou	-11.1359
狂	-11.1359
▁threatened	-11.136
▁Munich	-11.136
aq	-11.1361
▁bird	-11.1362
▁wooden	-11.1362
▁concrete	-11.1363
▁Aviation	-11.1364
▁note	-11.1364
▁Kir	-11.1365
随	-11.1366
委員會	-11.1367
▁carbon	-11.1367
▁Auckland	-11.137
kha	-11.1371
▁moment	-11.1371
е	-11.1372
sz	-11.1373
▁Rat	-11.1374
▁arch	-11.1374
爱	-11.1376
▁(2000)	-11.1377
▁Formula	-11.1377
▁Take	-11.1379
▁net	-11.1381
份	-11.1381
▁forming	-11.1381
▁1000	-11.1381
▁Mul	-11.1382
vert	-11.1383
▁shell	-11.1384
▁Golf	-11.1384
▁segment	-11.1385
ı	-11.1386
▁serial	-11.1387
玄	-11.1387
▁missions	-11.1389
网	-11.1389
保存	-11.1389
iva	-11.1392
▁Fighter	-11.1393
▁Environmental	-11.1394
▁reputation	-11.1394
▁ranking	-11.1401
▁1875	-11.1403
▁questions	-11.1405
▁Montana	-11.1406
充	-11.1407
▁drummer	-11.1409
医学	-11.1413
▁Cold	-11.1416
▁column	-11.1416
▁参考	-11.1417
脚	-11.1418
▁Harrison	-11.1418
▁Rosa	-11.1419
(2021	-11.1419
ín	-11.1419
▁1883	-11.142
なら	-11.142
called	-11.1421
▁filled	-11.1423
最初	-11.1424
▁correct	-11.1424
するために	-11.1425
▁helping	-11.1426
▁Poly	-11.1429
▁Machine	-11.1431
▁Cinema	-11.1432
▁Treaty	-11.1433
▁Cincinnati	-11.1433
▁activists	-11.1433
▁output	-11.1434
▁Susan	-11.1434
▁journals	-11.1435
rit	-11.1437
トー	-11.1437
韓国	-11.1438
(2007	-11.1439
郭	-11.144
▁pool	-11.144
頓	-11.1445
資格	-11.1445
sley	-11.1446
ヴァー	-11.1447
▁Abu	-11.1449
▁Brook	-11.1449
▁Gay	-11.1449
fu	-11.145
▁1873	-11.1453
ことがある	-11.1454
を中心に	-11.1454
以外	-11.1454
▁external	-11.1454
一次	-11.1454
やま	-11.1455
―	-11.1457
▁conservation	-11.1458
為了	-11.1458
cor	-11.1462
▁Dragon	-11.1464
▁Kara	-11.1464
察	-11.1465
ジャン	-11.1466
SR	-11.1466
▁Blood	-11.1466
▁copy	-11.1467
击	-11.1468
者は	-11.1468
菲	-11.1468
▁circuit	-11.1469
▁Whit	-11.1469
ベース	-11.1469
▁pan	-11.1469
HO	-11.1471
▁accept	-11.1473
▁1876	-11.1473
他在	-11.1475
▁associate	-11.1476
▁Gas	-11.1476
AF	-11.1477
ーズ	-11.1477
▁acquisition	-11.1479
ギター	-11.1481
▁beach	-11.1483
整備	-11.1483
▁Anglican	-11.1486
▁Kol	-11.1487
▁上	-11.1488
▁Say	-11.1488
自治	-11.1494
fr	-11.1496
▁false	-11.1497
ography	-11.1499
▁si	-11.15
CH	-11.1501
▁colleges	-11.1504
▁huge	-11.1504
▁indicated	-11.1504
失敗	-11.1505
etta	-11.1507
▁pen	-11.1508
▁stable	-11.1508
▁Overall	-11.1509
MI	-11.1509
拳	-11.1511
以下の	-11.1511
▁spoke	-11.1515
マーク	-11.1516
宜	-11.1517
eau	-11.1519
引き	-11.1519
▁Broadcasting	-11.152
spect	-11.152
▁Bulgarian	-11.1525
リスト	-11.1526
▁Kha	-11.1527
晋	-11.1528
ドゥ	-11.1529
剧	-11.1529
前の	-11.153
▁existed	-11.153
feld	-11.1532
▁São	-11.1533
ace	-11.1534
グリ	-11.1535
魂	-11.1536
これを	-11.1536
自動	-11.1538
たが	-11.1541
霍	-11.1543
ttle	-11.1543
▁Range	-11.1545
哲	-11.1546
》。	-11.1555
▁Hugh	-11.1556
自ら	-11.1557
佩	-11.1557
ened	-11.1557
固	-11.1557
任務	-11.1558
▁tank	-11.1559
藍	-11.156
iff	-11.1561
▁Friday	-11.1562
▁annually	-11.1563
HL	-11.1563
eur	-11.1565
▁Guardian	-11.1567
▁人物	-11.1569
綱	-11.1571
away	-11.1571
▁denied	-11.1572
!』	-11.1573
▁publisher	-11.1575
▁Movie	-11.1575
BL	-11.1576
▁tribe	-11.1576
日本人	-11.1578
▁Craig	-11.1581
▁eleven	-11.1583
批判	-11.1584
シーン	-11.1584
▁surrounded	-11.1586
げ	-11.1586
▁watch	-11.1587
▁entering	-11.1591
rac	-11.1591
侯	-11.1592
牧	-11.1592
ロス	-11.1592
れる	-11.1593
▁Election	-11.1595
生涯	-11.1595
股	-11.1596
nell	-11.1596
▁demolished	-11.1597
▁Unlike	-11.1598
作用	-11.1599
▁downtown	-11.16
呼	-11.1603
▁1879	-11.1605
▁nominations	-11.1605
得到	-11.1605
成長	-11.1605
不能	-11.1606
二人	-11.1607
緑	-11.1607
偏	-11.1607
▁Tr	-11.1607
eck	-11.161
▁increasingly	-11.161
害	-11.161
新宿	-11.161
▁Kenya	-11.1611
ars	-11.1611
联	-11.1611
唯一	-11.1613
▁Conservation	-11.1615
NC	-11.1615
▁understand	-11.1615
を行い	-11.1615
inch	-11.1615
▁(2015)	-11.1617
winning	-11.1617
ware	-11.162
▁movements	-11.162
å	-11.1622
▁belonging	-11.1622
▁prince	-11.1622
、4	-11.1624
▁Competition	-11.1625
▁modified	-11.1625
▁Filmography	-11.1626
▁gang	-11.1628
▁Individual	-11.1629
▁Br	-11.1629
▁1871	-11.1631
▁Keith	-11.1631
▁ideal	-11.1636
ピー	-11.1636
▁1993,	-11.1637
▁vessel	-11.1638
mir	-11.164
ender	-11.164
▁su	-11.1641
作業	-11.1643
笑	-11.1645
項目	-11.1649
▁Clinton	-11.1651
鈴木	-11.1652
▁(2016)	-11.1653
▁É	-11.1654
ではない	-11.1656
(3	-11.1659
name	-11.166
gent	-11.1661
è	-11.1662
市長	-11.1663
浅	-11.1664
魏	-11.1665
▁conclusion	-11.1665
▁Ground	-11.1666
炮	-11.1668
▁minimum	-11.1669
▁soul	-11.1669
萊	-11.1671
pic	-11.1672
▁injuries	-11.1672
▁sand	-11.1673
征	-11.1673
GP	-11.1675
競技	-11.1676
▁Adelaide	-11.1676
▁voting	-11.1676
▁Brad	-11.1676
▁Marvel	-11.1677
▁Was	-11.1677
ゆう	-11.1678
発見	-11.1678
▁choose	-11.1679
人員	-11.1682
à	-11.1683
▁donated	-11.1693
▁ta	-11.1694
▁Operations	-11.1696
荒	-11.1698
対象	-11.1698
▁Yale	-11.1701
▁AC	-11.1703
▁fighter	-11.1704
▁touchdown	-11.1704
▁Beijing	-11.1705
Jo	-11.1706
zen	-11.1707
III	-11.1709
▁Days	-11.171
RE	-11.1711
年的	-11.1711
▁Voice	-11.1714
▁approval	-11.1716
分子	-11.1717
▁63	-11.1718
▁domain	-11.172
易	-11.172
eli	-11.1721
▁(2)	-11.1722
▁treated	-11.1723
▁tools	-11.1725
途中	-11.1727
▁Indonesian	-11.1727
▁martial	-11.173
アイドル	-11.1731
bed	-11.1732
ゾ	-11.1733
▁Azerbaijan	-11.1736
▁drawing	-11.1738
禁止	-11.1741
tle	-11.1742
RS	-11.1743
▁Thai	-11.1749
West	-11.1749
ペン	-11.175
▁happened	-11.175
uncredited	-11.1751
▁check	-11.1752
▁palace	-11.1753
1989	-11.1756
民主	-11.1756
事務	-11.1757
wen	-11.1759
▁Vermont	-11.176
▁personality	-11.176
本人	-11.1762
rt	-11.1764
▁accounts	-11.1765
絶	-11.1767
▁Legacy	-11.1767
nam	-11.1767
▁Gilbert	-11.1768
▁Grove	-11.1768
▁Neo	-11.1771
▁agriculture	-11.1774
▁72	-11.1775
▁doubles	-11.1776
▁Lions	-11.1776
▁visiting	-11.1776
オス	-11.1777
▁天	-11.1777
軌道	-11.1779
▁Catherine	-11.178
▁Statistics	-11.1781
▁earthquake	-11.1781
Se	-11.1782
せず	-11.1782
▁row	-11.1784
char	-11.1786
▁obtain	-11.1787
ミン	-11.1788
ユニット	-11.1788
德國	-11.1791
▁competitive	-11.1792
▁Representative	-11.1792
▁debt	-11.1797
▁po	-11.1797
▁Nepal	-11.18
を受けて	-11.18
此外	-11.1801
NS	-11.1801
學院	-11.1803
什	-11.1803
▁Hispanic	-11.1803
▁Hudson	-11.1807
▁Rich	-11.181
▁experimental	-11.181
相關	-11.181
▁Mak	-11.1811
▁surgery	-11.1811
▁Wo	-11.1812
这些	-11.1814
take	-11.1815
▁Hat	-11.1818
▁PlayStation	-11.1819
▁Roll	-11.1819
▁Archbishop	-11.1821
▁Finance	-11.1822
三郎	-11.1822
ising	-11.1822
▁Cra	-11.1823
cle	-11.1825
舊	-11.1829
流行	-11.1833
une	-11.1833
▁frequent	-11.1834
句	-11.1835
▁Amsterdam	-11.1836
▁wrestling	-11.1836
▁来歴	-11.1836
榜	-11.1836
クリ	-11.1837
祥	-11.1838
迷	-11.184
▁networks	-11.184
bank	-11.184
(2020	-11.1842
▁grown	-11.1842
▁experiences	-11.1843
伦	-11.1847
吳	-11.1847
▁massive	-11.1848
▁tenure	-11.1849
pal	-11.1852
ów	-11.1853
電話	-11.1853
洪	-11.1853
西班牙	-11.1854
▁Jun	-11.1854
▁maintenance	-11.1854
▁Ridge	-11.1855
ゴー	-11.1856
设	-11.1856
▁speak	-11.1856
苦	-11.1856
▁rounds	-11.1858
ぼ	-11.1859
▁Guitar	-11.1863
▁明朝	-11.1865
▁wear	-11.1868
▁Kur	-11.1868
cen	-11.1869
▁Industry	-11.1869
vy	-11.1872
▁Gill	-11.1874
如果	-11.1875
250	-11.1877
she	-11.1879
历史	-11.1881
▁Stanford	-11.1881
▁merchant	-11.1882
调	-11.1883
チャンネル	-11.1884
▁EU	-11.1886
CR	-11.1886
▁surviving	-11.1888
nus	-11.1889
▁youngest	-11.1891
▁Dennis	-11.1892
cat	-11.1892
減少	-11.1893
▁lawyers	-11.1893
Po	-11.1896
▁preserved	-11.1896
キン	-11.1897
CP	-11.1898
▁changing	-11.1899
▁frequency	-11.1899
IM	-11.1901
▁1991,	-11.1901
チャー	-11.1904
▁crimes	-11.1905
=2	-11.1905
同时	-11.1907
▁consider	-11.1908
▁Within	-11.1909
▁Š	-11.1909
▁Hunt	-11.1909
月の	-11.1912
(2022	-11.1914
MG	-11.1917
▁Est	-11.1918
播出	-11.1919
▁poll	-11.1919
nate	-11.1921
▁protests	-11.1922
lov	-11.1923
▁seek	-11.1923
▁continuing	-11.1925
▁infantry	-11.1925
▁underground	-11.1928
歷史	-11.1932
図書館	-11.1932
▁Campaign	-11.1932
左右	-11.1934
▁emigrants	-11.1936
認定	-11.1936
ステ	-11.1938
岁	-11.1939
▁Cur	-11.1939
▁Indians	-11.1939
Don	-11.194
▁fur	-11.1942
cio	-11.1943
▁lap	-11.1944
▁Nord	-11.1944
▁tell	-11.1946
词	-11.1947
AV	-11.1947
▁Vegas	-11.1949
eu	-11.1951
elected	-11.1952
▁shift	-11.1952
▁spiritual	-11.1953
▁1874	-11.1954
延長	-11.1956
▁Economy	-11.1958
▁drew	-11.1959
飾演	-11.196
via	-11.1961
替	-11.1961
▁Kai	-11.1962
▁1996.	-11.1962
箱	-11.1965
▁electrical	-11.1966
aku	-11.1969
▁Lou	-11.1969
时间	-11.1969
▁instrumental	-11.197
フォ	-11.1972
驻	-11.1973
產	-11.1973
sta	-11.1974
1998	-11.1974
▁Bulgaria	-11.1974
▁MS	-11.1975
▁Winners	-11.1976
発生	-11.1977
一直	-11.1978
▁equipped	-11.1978
桥	-11.1979
ヴァン	-11.1979
▁Rogers	-11.198
sville	-11.1983
上で	-11.1983
▁execution	-11.1984
bon	-11.1986
晚	-11.1986
かん	-11.1986
▁120	-11.1987
1958	-11.199
脚本	-11.199
▁68	-11.199
臨	-11.1991
主人公	-11.1992
aro	-11.1992
トロ	-11.1993
cre	-11.1998
之前	-11.1998
)10	-11.1999
▁Single	-11.1999
の第	-11.1999
stan	-11.2
人は	-11.2002
▁Tin	-11.2002
▁fill	-11.2002
▁emperor	-11.2003
▁NA	-11.2005
旅行	-11.2008
table	-11.2009
▁BA	-11.201
tier	-11.201
▁wedding	-11.2011
者が	-11.2011
付き	-11.2012
▁Bobby	-11.2013
▁satellite	-11.2016
裝	-11.2017
專輯	-11.2019
▁Pri	-11.2024
▁venue	-11.2025
作曲家	-11.2027
▁attributed	-11.2027
連盟	-11.2028
▁recommended	-11.2029
rea	-11.203
▁visitors	-11.2032
▁printed	-11.2034
音乐	-11.2034
巡	-11.2035
lag	-11.2036
それぞれ	-11.2037
出し	-11.2038
▁lasted	-11.2039
▁spirit	-11.2041
ovich	-11.2044
ブランド	-11.2044
▁venture	-11.2044
食品	-11.2045
▁1877	-11.2046
這個	-11.2047
▁departure	-11.2048
▁cancelled	-11.2048
▁NHL	-11.2048
執行	-11.205
▁Mind	-11.2051
モー	-11.2053
▁Reg	-11.2054
▁Circuit	-11.2055
▁Masters	-11.2057
根据	-11.2059
内で	-11.2061
▁horses	-11.2064
▁77	-11.2067
!(	-11.2068
▁Spirit	-11.2069
▁shore	-11.207
進入	-11.2071
论	-11.2071
第五	-11.2073
rian	-11.2081
杉	-11.2081
▁terminal	-11.2081
hour	-11.2082
はない	-11.2086
BO	-11.2086
面积	-11.2089
▁Syria	-11.2089
意識	-11.2089
附	-11.2091
▁architectural	-11.2093
▁元	-11.2094
ていたが	-11.2095
ことは	-11.2096
▁tests	-11.2097
記事	-11.2097
▁61	-11.2099
▁67	-11.21
闘	-11.2104
DE	-11.2105
▁Greg	-11.2107
WA	-11.2107
tam	-11.2108
▁distinguished	-11.2109
▁Jose	-11.2109
創立	-11.211
翌年	-11.2111
1940	-11.2112
▁rapid	-11.2112
ロンドン	-11.2113
▁longest	-11.2116
▁Harold	-11.2118
▁•	-11.212
画家	-11.212
▁Larry	-11.2122
するため	-11.2122
▁Tam	-11.2123
▁Wilhelm	-11.2123
▁acted	-11.2125
▁Venezuela	-11.2126
gh	-11.2126
▁1868	-11.2126
▁scientist	-11.2128
ゲン	-11.2128
▁Drama	-11.2129
を取り	-11.213
銅	-11.213
▁none	-11.213
▁Female	-11.2131
▁somewhat	-11.2131
ドラ	-11.2132
▁markets	-11.2133
▁fit	-11.2134
レコード	-11.2135
▁北海道	-11.2137
▁widespread	-11.2138
混	-11.2141
▁Terry	-11.2141
▁Sultan	-11.2143
▁(13	-11.2145
▁飾	-11.2145
▁alliance	-11.2146
1962	-11.2146
foot	-11.2147
▁Pal	-11.2148
演員	-11.2149
移	-11.2149
▁representatives	-11.215
▁wa	-11.215
lot	-11.2151
搭載	-11.2151
iko	-11.2151
▁Leo	-11.2153
AI	-11.2154
▁spoken	-11.2156
▁Gene	-11.2156
棋	-11.2156
card	-11.2157
▁brigade	-11.2157
1970	-11.2158
▁platforms	-11.2159
▁Jefferson	-11.2161
拓	-11.2163
首相	-11.2164
–14	-11.2164
ref	-11.2167
city	-11.2168
曹	-11.2168
▁Steven	-11.2169
▁erected	-11.2169
1949	-11.217
▁snow	-11.2171
異なる	-11.2171
▁sight	-11.2171
▁characteristics	-11.2171
sar	-11.2175
▁(1999)	-11.2176
▁sequel	-11.2176
▁agents	-11.2177
髪	-11.2177
立ち	-11.2179
▁sample	-11.218
跟	-11.218
▁merger	-11.218
統合	-11.2181
こともある	-11.2185
oi	-11.2185
▁Tele	-11.2188
1986	-11.2188
▁Grace	-11.2191
Cl	-11.2192
南京	-11.2192
▁craft	-11.2193
授	-11.2194
▁appropriate	-11.2194
応	-11.2195
硬	-11.2198
▁Len	-11.22
▁kick	-11.22
▁ru	-11.2202
▁transportation	-11.2203
udi	-11.2204
分離	-11.2208
1955	-11.2209
告	-11.2209
nica	-11.221
▁illegal	-11.2216
ulation	-11.2217
)※	-11.2218
SM	-11.2219
機器	-11.2219
▁Confederate	-11.222
▁conservative	-11.222
lip	-11.2222
▁1989,	-11.2223
brook	-11.2225
▁occasionally	-11.2225
连	-11.2226
けん	-11.2227
奉	-11.2228
pop	-11.2232
▁moral	-11.2236
▁crown	-11.2237
ボール	-11.2238
▁remove	-11.2238
▁boats	-11.2239
追加	-11.2239
▁Barr	-11.224
標	-11.2241
ッド	-11.2242
wo	-11.2243
▁festivals	-11.2244
▁thirty	-11.2245
以外の	-11.2246
▁percentage	-11.2247
ニューヨーク	-11.2248
▁attracted	-11.2248
▁shares	-11.2248
rey	-11.2251
▁narrative	-11.2252
▁ne	-11.2254
夕	-11.2254
▁remainder	-11.2254
スペイン	-11.2256
▁angle	-11.2257
▁1867	-11.2257
▁Abbey	-11.226
1975	-11.2261
プラ	-11.2263
岳	-11.2263
▁Stra	-11.2264
▁scholarship	-11.2265
▁Source	-11.2267
mate	-11.227
▁Beck	-11.2273
止	-11.2274
歴	-11.2275
▁Pakistani	-11.2277
ör	-11.2277
▁JR	-11.2278
DF	-11.2279
rip	-11.2281
教師	-11.2283
▁Case	-11.2284
獣	-11.2284
▁Palm	-11.2289
▁trading	-11.2291
UK	-11.2293
(2006	-11.2293
power	-11.2294
LO	-11.2294
▁Holland	-11.2295
▁1872	-11.2295
▁Nigerian	-11.2295
▁Deep	-11.2295
公式サイト	-11.2297
▁69	-11.2297
▁monument	-11.2299
▁send	-11.2303
除了	-11.2303
rang	-11.2304
▁1990,	-11.2305
▁(2017)	-11.2305
▁whilst	-11.2306
冰	-11.2306
▁Madison	-11.2306
pat	-11.2307
▁desire	-11.2312
▁Together	-11.2313
交差点	-11.2314
靈	-11.2321
у	-11.2321
▁employment	-11.2322
GI	-11.2323
▁reduction	-11.2323
▁Tag	-11.2323
▁warm	-11.2324
▁Climate	-11.2325
▁gay	-11.2326
▁Petersburg	-11.2326
▁comics	-11.2327
▁Shortly	-11.2328
1930	-11.2329
▁Drive	-11.2332
設備	-11.2333
▁illness	-11.2334
rag	-11.2334
profit	-11.2334
▁Kay	-11.2337
重新	-11.2338
カラー	-11.2341
range	-11.2344
▁keyboards	-11.2344
▁settlements	-11.2345
▁contribution	-11.2345
▁View	-11.2346
參加	-11.2347
▁contested	-11.2347
ぬ	-11.2348
▁Cer	-11.2349
エス	-11.2349
tw	-11.235
富士	-11.2351
Ne	-11.2353
が多い	-11.2353
▁Perry	-11.2355
圏	-11.2355
▁participants	-11.2355
▁Episode	-11.2356
▁exit	-11.2356
▁effectively	-11.2356
▁Norfolk	-11.2356
▁Athens	-11.2356
リス	-11.2357
▁Filipino	-11.2358
▁Dog	-11.2359
OC	-11.236
▁operational	-11.2364
てきた	-11.2366
云	-11.2366
因为	-11.2369
▁(7	-11.2372
▁Lar	-11.2374
hn	-11.2375
▁concern	-11.2376
初めて	-11.2378
ホー	-11.2378
▁posted	-11.2379
▁Finals	-11.2379
▁Springs	-11.2379
务	-11.2382
~	-11.2383
义	-11.2386
▁restoration	-11.2387
ologist	-11.2389
加拿大	-11.2391
をする	-11.2391
oy	-11.2393
▁reportedly	-11.2395
故事	-11.2397
▁salt	-11.2398
▁diameter	-11.2399
を参照	-11.24
タイプ	-11.2402
▁innings	-11.2402
建物	-11.2406
材	-11.2407
▁strip	-11.2408
Mu	-11.241
禮	-11.241
▁thick	-11.2411
序	-11.2413
▁Mai	-11.2414
▁everything	-11.2414
▁alternate	-11.2414
cing	-11.2415
ym	-11.2416
▁researchers	-11.2417
rel	-11.2418
vol	-11.2419
▁Yi	-11.242
▁acoustic	-11.242
ack	-11.2423
ソング	-11.2423
▁stress	-11.2424
▁Peninsula	-11.2425
▁Soon	-11.2426
▁Instead	-11.2427
資	-11.2427
▁Hai	-11.2429
▁processing	-11.2431
box	-11.2432
▁Denver	-11.2435
のち	-11.2435
inger	-11.2436
▁grandfather	-11.2436
実験	-11.2438
▁visible	-11.2438
需	-11.2439
▁Roberts	-11.244
ドー	-11.2441
tti	-11.2443
▁thousand	-11.2444
開設	-11.2445
关	-11.2446
崇	-11.2449
▁liquid	-11.2449
法人	-11.2451
でもある	-11.2452
1974	-11.2453
▁silent	-11.2453
▁abroad	-11.2453
was	-11.2454
▁considerable	-11.2455
▁1995.	-11.2459
▁Dy	-11.246
▁creative	-11.2461
emi	-11.2461
▁Mall	-11.2463
1969	-11.2464
enko	-11.2464
▁relation	-11.2465
欠	-11.2465
weight	-11.2465
▁Az	-11.2466
斗	-11.2466
berry	-11.2466
アス	-11.2468
▁Plant	-11.2472
с	-11.2473
–13	-11.2473
せい	-11.2474
▁App	-11.2475
▁sculpture	-11.2476
まり	-11.2478
就是	-11.2479
畑	-11.248
▁Stuart	-11.2481
▁Manager	-11.2481
予選	-11.2485
▁blocks	-11.2486
バージョン	-11.2486
dell	-11.2487
dic	-11.2487
1968	-11.2487
猫	-11.2488
▁Sierra	-11.2489
そのまま	-11.2489
:“	-11.2489
持ち	-11.2489
▁describe	-11.2491
▁Delaware	-11.2492
2023	-11.2494
維持	-11.2494
num	-11.2494
▁Hebrew	-11.2495
eller	-11.2496
▁assist	-11.2497
ë	-11.2498
▁cricketer	-11.2501
▁outbreak	-11.2502
▁sole	-11.2502
田中	-11.2503
小型	-11.2506
▁thing	-11.2508
内部	-11.2511
时期	-11.2511
▁recovered	-11.2512
翔	-11.2512
Ho	-11.2512
経験	-11.2513
1996	-11.2514
突	-11.2516
したり	-11.2516
▁turning	-11.2517
▁Airlines	-11.2517
▁Come	-11.2518
▁76	-11.2519
anga	-11.252
▁meetings	-11.252
▁trust	-11.252
イー	-11.2522
したため	-11.2522
レギュラー	-11.2522
▁1866	-11.2523
跳	-11.2524
アナ	-11.2526
▁colony	-11.2526
▁beautiful	-11.2527
▁世界	-11.2527
▁sentence	-11.2527
の楽曲	-11.2529
▁Bha	-11.2529
ł	-11.2531
▁Photo	-11.2532
栗	-11.2533
制定	-11.2533
地上	-11.2535
free	-11.2535
▁Exchange	-11.2536
▁Exhibition	-11.2536
▁honors	-11.2538
▁formula	-11.2538
▁Geo	-11.2541
職業	-11.2541
もう	-11.2542
れば	-11.2542
广	-11.2543
▁whereas	-11.2543
▁formations	-11.2545
脳	-11.2546
オル	-11.2546
はその	-11.2546
専用	-11.2547
鄭	-11.2547
によれば	-11.2547
umi	-11.2548
formerly	-11.2549
伸	-11.255
▁themes	-11.2556
MT	-11.2556
▁discovery	-11.2556
▁Bun	-11.2558
▁Chapter	-11.2559
▁indicates	-11.256
▁Christianity	-11.2563
▁opponents	-11.2564
bur	-11.2565
▁arrangement	-11.2567
英雄	-11.2571
▁Syrian	-11.2572
が行われた	-11.2574
▁Productions	-11.2575
▁characterized	-11.2578
▁layer	-11.2578
增加	-11.2579
装備	-11.2579
att	-11.258
hin	-11.258
リオ	-11.2583
中継	-11.2585
乐	-11.2586
▁anything	-11.2587
▁Ottawa	-11.2587
FI	-11.2588
▁coaching	-11.259
腹	-11.259
戈	-11.2591
1971	-11.2591
▁Deaths	-11.2591
cast	-11.2593
EA	-11.2593
▁Vas	-11.2593
▁mention	-11.2593
rn	-11.2594
クロス	-11.2597
▁Lab	-11.2599
場合は	-11.2599
▁exists	-11.2601
▁mini	-11.2601
旅客	-11.2603
期间	-11.2604
▁anime	-11.2605
▁85	-11.2605
▁hundreds	-11.2606
▁Shaw	-11.2607
テレ	-11.2607
貫	-11.2611
雖然	-11.2615
▁widow	-11.2615
▁qualification	-11.2619
获	-11.2619
▁Microsoft	-11.262
著作	-11.262
▁Get	-11.262
▁Manuel	-11.2622
仕様	-11.2623
▁Sc	-11.2624
ナイト	-11.2628
デル	-11.2628
ページ	-11.263
▁playoffs	-11.263
press	-11.263
▁Hughes	-11.2632
佐藤	-11.2633
エネルギー	-11.2634
パーク	-11.2635
编	-11.2636
願	-11.2638
▁Lind	-11.2638
▁Next	-11.264
▁(1998)	-11.264
生徒	-11.2642
▁Diamond	-11.2642
穴	-11.2642
モード	-11.2646
▁映画	-11.2646
tum	-11.2647
▁Schedule	-11.2652
▁78	-11.2654
én	-11.2654
▁inner	-11.2656
▁implementation	-11.2657
热	-11.2658
▁Berkeley	-11.2658
数は	-11.2659
切り	-11.2659
▁Kat	-11.2661
滅	-11.2661
Ch	-11.2662
▁concerned	-11.2662
集中	-11.2664
請	-11.2665
▁Bow	-11.2666
▁Democrats	-11.2668
一人	-11.2668
▁3-	-11.2672
腕	-11.2674
▁centers	-11.2674
政権	-11.2675
▁emerged	-11.2675
sin	-11.2676
hop	-11.2678
应	-11.2678
名義	-11.2679
车站	-11.268
▁physician	-11.268
▁2–1	-11.2681
勤	-11.2681
▁suffering	-11.2682
▁supplies	-11.2682
這些	-11.2683
ミニ	-11.2684
▁aimed	-11.2685
輔	-11.2688
1988	-11.2689
▁Comp	-11.2691
拡大	-11.2691
AA	-11.2691
aux	-11.2693
ison	-11.2694
▁spending	-11.2695
One	-11.2696
minute	-11.2696
▁Chapel	-11.2696
ウェイ	-11.2697
Best	-11.2697
▁constitution	-11.2698
IV	-11.2699
▁occasions	-11.2699
▁62	-11.2699
全て	-11.2701
年至	-11.2702
たちの	-11.2702
▁mathematics	-11.2702
都是	-11.2704
zan	-11.2706
上映	-11.2708
1990	-11.2708
虫	-11.271
▁summary	-11.2711
▁traveled	-11.2711
▁jobs	-11.2712
日本語	-11.2715
▁liberal	-11.2715
▁Justin	-11.2716
地名	-11.2717
臨時	-11.2718
▁fort	-11.272
▁李	-11.2721
播	-11.2721
owned	-11.2722
▁Murphy	-11.2723
▁relationships	-11.2723
hir	-11.2724
▁Raja	-11.2724
なり	-11.2724
▁Mos	-11.2724
▁Grey	-11.2724
▁カ	-11.2725
▁resident	-11.2726
にかけて	-11.2727
▁marketing	-11.2729
ロード	-11.2729
スの	-11.2731
▁concentration	-11.2733
▁absence	-11.2734
▁coalition	-11.2735
▁Communes	-11.2735
▁texts	-11.2737
駅前	-11.2739
▁Sony	-11.2739
▁Room	-11.274
▁Bosnia	-11.2741
疑	-11.2742
するなど	-11.2743
線の	-11.2744
弥	-11.2745
▁finance	-11.2745
▁noble	-11.2746
▁Cruz	-11.2748
nen	-11.2748
▁Friends	-11.2749
自身	-11.2749
シャー	-11.2749
▁supporters	-11.2749
nor	-11.275
▁afterwards	-11.2751
▁fantasy	-11.2751
pl	-11.2751
库	-11.2755
▁claiming	-11.2755
灣	-11.2757
▁publicly	-11.2759
▁NHK	-11.276
▁substitute	-11.2761
bol	-11.2761
ago	-11.2762
▁database	-11.2763
巴士	-11.2764
▁Friedrich	-11.2765
▁Stein	-11.2767
▁instrument	-11.2767
▁depending	-11.2768
▁Qa	-11.2768
婚	-11.2769
▁faith	-11.277
cz	-11.277
▁encouraged	-11.2771
▁uniform	-11.2772
間の	-11.2776
▁(2018)	-11.2777
cap	-11.2779
(5	-11.278
を受ける	-11.2781
比赛	-11.2782
▁Ralph	-11.2785
▁tribes	-11.2788
▁mixing	-11.2788
▁Table	-11.2789
▁Butler	-11.279
▁Scientific	-11.2791
▁conversion	-11.2791
葬	-11.2791
かわ	-11.2792
ear	-11.2792
sim	-11.2794
▁perspective	-11.2795
交換	-11.2795
▁package	-11.2796
にして	-11.2798
iri	-11.2798
書房	-11.2799
▁1994.	-11.28
rk	-11.2801
▁Ski	-11.2801
▁bound	-11.2802
▁truth	-11.2803
vas	-11.2804
▁rapidly	-11.2805
its	-11.2806
▁Zo	-11.2808
▁parent	-11.2809
▁inaugural	-11.2811
▁Morning	-11.2812
acy	-11.2815
ente	-11.2815
▁Muslims	-11.2817
鳴	-11.2818
▁viewers	-11.2819
▁gallery	-11.2819
連邦	-11.282
性能	-11.2821
▁Care	-11.2821
▁Ir	-11.2825
▁writes	-11.2826
游	-11.2829
だと	-11.283
論文	-11.2831
▁Bach	-11.2832
▁wheel	-11.2832
以降は	-11.2833
▁begun	-11.2834
费	-11.2835
▁Pay	-11.2835
▁Michel	-11.2835
vent	-11.2837
tech	-11.2837
▁Admiral	-11.2838
沖	-11.2839
勢力	-11.284
▁Such	-11.2841
ブラック	-11.2842
▁greatly	-11.2845
▁convention	-11.2845
東部	-11.2847
▁immediate	-11.285
▁pit	-11.285
擁有	-11.2851
▁junction	-11.2852
▁significance	-11.2852
痛	-11.2853
▁Neil	-11.2853
▁relocated	-11.2855
▁Gang	-11.2855
▁canal	-11.2861
HS	-11.2861
掲載	-11.2864
cell	-11.2864
▁sat	-11.2865
▁mu	-11.2868
(2005	-11.2871
▁evolution	-11.2872
同時に	-11.2872
梨	-11.2872
蓮	-11.2872
編集	-11.2873
途	-11.2874
メイ	-11.2876
▁facing	-11.2876
iki	-11.2876
专	-11.2876
▁jump	-11.2879
▁Edwards	-11.2879
▁Metal	-11.2879
《》	-11.2879
▁人口	-11.288
零	-11.288
rai	-11.288
▁Block	-11.2881
▁Eagles	-11.2882
得点	-11.2882
▁download	-11.2883
1963	-11.2884
▁Bag	-11.2885
更新	-11.2885
▁Mason	-11.2886
▁civilian	-11.2886
▁Leeds	-11.2887
▁behalf	-11.2887
iga	-11.2887
秘	-11.2888
▁Wy	-11.2889
▁74	-11.2889
DR	-11.2892
ヘル	-11.2892
▁Legal	-11.2894
▁waters	-11.2894
灯	-11.2895
ische	-11.2895
▁IN	-11.2896
▁Brisbane	-11.2896
広島	-11.2897
沈	-11.2898
1956	-11.2899
▁violin	-11.29
▁Price	-11.2901
ée	-11.2903
▁安	-11.2905
1983	-11.2906
▁licensed	-11.2907
▁plate	-11.2907
▁Formation	-11.2907
投手	-11.2908
体育	-11.2909
傑	-11.291
▁commanded	-11.2911
▁Commons	-11.2911
的一	-11.2912
ges	-11.2912
1985	-11.2918
ケイ	-11.2918
▁commented	-11.2918
推進	-11.2918
財	-11.2924
oka	-11.2927
▁Congo	-11.2928
TE	-11.2931
▁affiliated	-11.2931
▁artwork	-11.2933
牙	-11.2933
▁Pedro	-11.2935
ient	-11.2936
▁qualify	-11.2937
凱	-11.2937
▁biography	-11.2942
帰	-11.2942
▁Ant	-11.2944
生命	-11.2945
▁knew	-11.2946
ç	-11.2947
▁exception	-11.2949
产	-11.2949
フォー	-11.295
gui	-11.2951
▁guilty	-11.2951
verse	-11.2951
生き	-11.2952
meter	-11.2953
▁Eddie	-11.2954
部の	-11.2957
▁defending	-11.2957
maker	-11.2958
廳	-11.2958
120	-11.2958
▁LP	-11.296
材料	-11.2961
▁clock	-11.2961
▁Watson	-11.2963
▁Sk	-11.2964
akh	-11.2967
プリ	-11.2967
▁Intelligence	-11.2967
tica	-11.2969
シェ	-11.297
属于	-11.297
▁missed	-11.2971
▁Heat	-11.2974
▁Secondary	-11.2974
Gu	-11.2974
William	-11.2974
快速	-11.2975
▁imp	-11.2976
▁possession	-11.2977
▁add	-11.2977
▁Jar	-11.2978
▁incidents	-11.2979
▁cargo	-11.298
▁Byzantine	-11.2981
▁Archive	-11.2983
ş	-11.2984
▁Hon	-11.2988
▁Newcastle	-11.2988
▁Derby	-11.2988
出す	-11.2988
▁adventure	-11.2989
▁Otto	-11.2989
phy	-11.299
▁Franco	-11.299
▁Right	-11.2991
amba	-11.2993
▁Ruth	-11.2997
Fi	-11.2997
▁Arnold	-11.2999
▁photographs	-11.3
バラ	-11.3
▁broadcasting	-11.3
早期	-11.3
ボー	-11.3001
eve	-11.3001
▁Leader	-11.3002
▁(12	-11.3002
忍	-11.3004
ids	-11.3004
▁Baby	-11.3005
▁extreme	-11.3005
誤	-11.3006
1948	-11.3006
山田	-11.3007
ゲスト	-11.3007
▁versus	-11.3007
";	-11.3007
high	-11.301
▁detailed	-11.301
rina	-11.301
▁Ghost	-11.3012
▁Das	-11.3012
ija	-11.3017
▁Much	-11.3018
1960	-11.3019
▁advertising	-11.302
▁ninth	-11.302
米国	-11.3021
itis	-11.3022
▁Agriculture	-11.3024
1954	-11.3024
▁Annual	-11.3024
▁struggle	-11.3025
▁Study	-11.3027
▁categories	-11.3028
的一个	-11.3029
▁Financial	-11.3029
▁全	-11.3032
igan	-11.3034
フォン	-11.3034
入れ	-11.3034
▁1840	-11.3035
▁coup	-11.3035
erson	-11.3036
▁amongst	-11.3037
各種	-11.3038
通称	-11.3038
▁1993.	-11.3039
▁thin	-11.304
▁Warsaw	-11.3041
gro	-11.3041
ガル	-11.3042
操	-11.3043
aries	-11.3045
各地	-11.3045
▁signs	-11.3046
▁operator	-11.3046
rot	-11.3046
▁Rai	-11.3048
妙	-11.3048
▁subsidiary	-11.3053
▁Latino	-11.3053
▁André	-11.3053
▁mechanical	-11.3055
idi	-11.3055
の元	-11.3058
▁unusual	-11.3059
▁patient	-11.306
僅	-11.306
▁intellectual	-11.3061
有限公司	-11.3061
派遣	-11.3062
这个	-11.3064
営業所	-11.3064
▁Vale	-11.3065
▁bridges	-11.3065
▁Wellington	-11.3065
▁releases	-11.3066
のお	-11.3066
主义	-11.3067
TH	-11.307
選出	-11.307
▁Bond	-11.3071
贝	-11.3073
亭	-11.3074
▁extent	-11.3074
▁1869	-11.3077
▁opportunities	-11.3078
运	-11.3078
▁organised	-11.3081
Com	-11.3082
making	-11.3085
▁insurance	-11.3086
▁Bart	-11.3087
▁favour	-11.3087
▁Nine	-11.3088
▁Bath	-11.3088
亀	-11.3089
近代	-11.309
▁normally	-11.3094
▁Shanghai	-11.3094
▁1992.	-11.3096
▁Zu	-11.3098
声優	-11.3098
▁component	-11.3098
▁attending	-11.3099
▁Full	-11.3103
▁88	-11.3104
溫	-11.3105
▁Sox	-11.3105
▁Economics	-11.3105
拜	-11.3107
▁steps	-11.3111
▁rebuilt	-11.3113
価	-11.3113
▁ocean	-11.3114
▁歌	-11.3114
▁museums	-11.3116
▁1987,	-11.3116
▁murdered	-11.3117
▁apartment	-11.3118
▁easy	-11.3119
▁ambassador	-11.3119
▁pole	-11.312
▁gradually	-11.3121
▁summit	-11.3121
(4	-11.3124
▁1.5	-11.3127
ていない	-11.3128
owski	-11.3128
▁SP	-11.3128
▁(1997)	-11.3128
▁variant	-11.3129
領域	-11.3129
美術館	-11.313
▁Vladimir	-11.313
カイ	-11.3131
れた	-11.3131
▁violent	-11.3131
▁Student	-11.3132
をしている	-11.3133
▁index	-11.3133
cit	-11.3136
中村	-11.3138
戰爭	-11.3139
廃	-11.3139
▁worship	-11.314
▁Albanian	-11.314
▁Shadow	-11.314
体制	-11.3142
条約	-11.3144
馆	-11.3144
▁giant	-11.3145
に位置する	-11.3146
1984	-11.3147
▁legislative	-11.3149
徒	-11.3149
▁viewed	-11.3149
▁gone	-11.315
夫人	-11.3151
今日	-11.3152
▁Article	-11.3154
▁1848	-11.3155
芝	-11.3159
▁balance	-11.316
▁Hamburg	-11.316
then	-11.3161
发生	-11.3162
▁credits	-11.3163
▁adults	-11.3165
writer	-11.3165
▁perfect	-11.3165
ファー	-11.3165
world	-11.3165
ようになった	-11.3167
▁drugs	-11.3168
▁cash	-11.317
▁Amazon	-11.317
創作	-11.3171
居民	-11.3171
▁Methodist	-11.3173
しん	-11.3175
▁Java	-11.3176
▁エ	-11.3177
So	-11.3178
▁Tennis	-11.3179
▁Kun	-11.3179
官方	-11.3179
▁couples	-11.318
▁defenders	-11.3181
▁seeking	-11.3181
▁experiment	-11.3182
繁	-11.3182
50,000	-11.3183
▁solar	-11.3184
United	-11.3185
強化	-11.3186
▁standings	-11.3186
ッカー	-11.3186
较	-11.3186
金融	-11.3188
伴	-11.3189
coming	-11.319
cl	-11.3192
洗	-11.3198
圓	-11.3199
▁destruction	-11.3199
ダンス	-11.3201
▁ready	-11.3206
gre	-11.3206
侍	-11.3207
ude	-11.3207
▁交通	-11.3207
としても	-11.3208
pol	-11.3208
▁Berg	-11.3208
(7	-11.3209
スタッフ	-11.321
▁pursue	-11.321
なか	-11.3211
▁incumbent	-11.3212
經濟	-11.3212
国王	-11.3213
關係	-11.3215
▁Draw	-11.3215
March	-11.3215
▁Independence	-11.3216
荷	-11.3217
DI	-11.3217
▁mounted	-11.3219
▁Coach	-11.3219
▁designation	-11.322
mur	-11.3221
固定	-11.3221
1982	-11.3221
▁weapon	-11.3222
▁Jen	-11.3222
▁everyone	-11.3222
の一	-11.3223
隔	-11.3224
全部	-11.3227
大使	-11.3228
それを	-11.323
感染	-11.3231
▁planet	-11.3231
made	-11.3232
▁1,000	-11.3234
horn	-11.3234
会員	-11.3234
▁美國	-11.3234
▁thriller	-11.3235
〉)	-11.3235
GC	-11.3235
▁250	-11.3237
▁spend	-11.3239
−	-11.3242
▁95	-11.3242
hon	-11.3244
▁bond	-11.3244
1941	-11.3245
英文	-11.3246
ake	-11.3247
已經	-11.3248
コル	-11.3249
▁Vin	-11.325
▁Raymond	-11.325
▁前	-11.3253
▁Name	-11.3254
最多	-11.3254
集団	-11.3255
当时	-11.3255
GO	-11.3255
▁tunnel	-11.3256
▁wings	-11.3256
チュ	-11.3256
▁Rhode	-11.3262
▁ranks	-11.3262
▁makeup	-11.3262
欧	-11.3263
▁Leonard	-11.3266
▁loop	-11.3266
elo	-11.3266
▁retail	-11.327
▁trail	-11.327
卵	-11.327
されていない	-11.327
▁constitutional	-11.3271
Love	-11.3271
▁Until	-11.3272
▁Institution	-11.3272
▁exposed	-11.3274
▁cor	-11.3275
▁Florence	-11.3275
▁pain	-11.3276
asi	-11.3276
oz	-11.3278
▁notice	-11.328
▁substantial	-11.3281
▁revenue	-11.3282
▁AS	-11.3283
▁roster	-11.3284
周年	-11.3284
▁Fisher	-11.3285
zon	-11.3285
▁Legion	-11.3289
Da	-11.3291
▁Hen	-11.3292
▁Vir	-11.3292
▁twin	-11.3292
▁Bin	-11.3293
dle	-11.3294
です	-11.3295
▁Yang	-11.3295
pon	-11.3295
▁Maj	-11.3295
极	-11.3296
鷹	-11.3296
準備	-11.3296
▁Bul	-11.3298
sie	-11.3301
▁friendly	-11.3304
▁useful	-11.3304
▁portrait	-11.3306
▁dual	-11.3307
えた	-11.3308
▁Carol	-11.3308
▁remote	-11.3309
労働	-11.3309
▁organisations	-11.331
弗	-11.3311
是在	-11.3311
の間	-11.3312
錦	-11.3313
▁Fiction	-11.3314
たか	-11.3315
▁(3)	-11.3315
▁customers	-11.3317
▁throne	-11.3318
▁Every	-11.3319
号線	-11.3319
▁initiative	-11.332
妹	-11.3321
▁ceased	-11.3321
灰	-11.3321
▁bombing	-11.3325
特定	-11.3326
▁comparison	-11.3326
▁withdrew	-11.3326
▁manufacturer	-11.3327
時には	-11.3328
▁1–0	-11.3328
屬於	-11.3329
pper	-11.333
東海	-11.3331
▁Commercial	-11.3332
▁Sto	-11.3333
▁ski	-11.3337
▁secured	-11.3339
▁asks	-11.3343
PL	-11.3343
▁Venice	-11.3343
▁assets	-11.3344
性的	-11.3344
▁Joint	-11.3344
レベル	-11.3347
▁Ober	-11.3349
チン	-11.3349
▁volleyball	-11.3352
▁Ara	-11.3353
原因	-11.3353
▁Armed	-11.3354
▁Revival	-11.3356
borg	-11.3356
していない	-11.3359
▁Actor	-11.336
解決	-11.3361
边	-11.3361
抱	-11.3363
▁implemented	-11.3363
卓	-11.3364
▁occasion	-11.3367
▁Luc	-11.3368
Ga	-11.3369
ao	-11.337
poli	-11.337
▁Fourth	-11.3371
ピアノ	-11.3371
外交	-11.3373
技术	-11.3373
▁enjoy	-11.3373
asa	-11.3374
▁apparently	-11.3374
▁repair	-11.3374
山口	-11.3375
▁(8	-11.3376
远	-11.3377
▁corporate	-11.3377
cock	-11.3378
ことに	-11.338
atory	-11.338
▁Aircraft	-11.3381
注意	-11.3382
也有	-11.3383
▁resort	-11.3384
▁Palestinian	-11.3385
高度	-11.3386
▁sponsored	-11.3387
FL	-11.3388
▁Kate	-11.339
候補	-11.3391
兒	-11.3394
▁82	-11.3395
read	-11.3396
テル	-11.3397
かけ	-11.3398
とその	-11.3398
▁Merit	-11.3398
居住	-11.3398
免	-11.34
スタイル	-11.3401
▁pin	-11.3402
1957	-11.3403
bul	-11.3404
▁Additional	-11.3406
採	-11.3407
▁collect	-11.3408
頁	-11.3411
问题	-11.3411
一家	-11.3411
投資	-11.3412
EX	-11.3412
jun	-11.3416
▁shelter	-11.3416
▁Cork	-11.3418
ike	-11.3419
セイ	-11.3419
▁wants	-11.3419
▁concerts	-11.3419
▁Mario	-11.342
講	-11.3421
▁PhD	-11.3421
甚至	-11.3422
his	-11.3422
▁deployed	-11.3424
復活	-11.3425
吹	-11.3429
電力	-11.3429
▁Know	-11.3429
▁bin	-11.3431
王朝	-11.3433
LD	-11.3433
ush	-11.3434
▁possibility	-11.3437
▁recipient	-11.3438
▁cat	-11.3438
ache	-11.3439
▁voters	-11.3441
1952	-11.3444
▁(1996)	-11.3445
いずれも	-11.3446
▁Joan	-11.3447
1979	-11.3447
园	-11.3448
kon	-11.3448
▁Support	-11.3448
lyn	-11.3448
沖縄	-11.3449
English	-11.3449
▁Still	-11.3452
▁Scotia	-11.3452
▁73	-11.3454
▁Dominican	-11.3454
▁Tsu	-11.3455
織	-11.3456
運動員	-11.3456
ソー	-11.3457
かな	-11.3457
怪	-11.3458
zar	-11.3462
▁Houses	-11.3463
▁wearing	-11.3465
誕生	-11.3466
▁Along	-11.3466
▁bear	-11.3467
。”	-11.3467
ラム	-11.3469
▁阿	-11.3469
昇	-11.3471
ere	-11.3471
▁belonged	-11.3471
▁Simpson	-11.3472
▁eldest	-11.3472
▁Wallace	-11.3473
isestablishments	-11.3476
▁Gan	-11.3476
▁Past	-11.3476
▁79	-11.3477
▁anyone	-11.3478
落ち	-11.3478
推出	-11.348
▁1859	-11.3481
ffer	-11.3483
▁load	-11.3486
▁prove	-11.3487
考え	-11.3488
▁grass	-11.3489
回戦	-11.3491
主張	-11.3493
チョ	-11.3494
▁Lebanon	-11.3494
▁movies	-11.3494
▁Dame	-11.3494
▁Wells	-11.3495
▁vast	-11.3495
▁width	-11.3496
高等	-11.3496
直到	-11.3496
▁communist	-11.3497
觀	-11.3497
▁1988,	-11.35
▁Tommy	-11.35
トラック	-11.35
▁connecting	-11.35
▁2.0	-11.3501
1987	-11.3501
タウン	-11.3502
▁strategic	-11.3502
▁Tha	-11.3503
祖父	-11.3503
▁Chair	-11.3506
按	-11.3506
▁funeral	-11.3507
▁Fellows	-11.3509
▁imperial	-11.3509
hat	-11.351
▁communications	-11.351
ander	-11.3511
合成	-11.3511
カラ	-11.3512
解放	-11.3514
▁Encyclopedia	-11.3515
▁EC	-11.3515
▁Serie	-11.3516
first	-11.3516
に出	-11.3516
sum	-11.3518
▁sees	-11.3519
▁identify	-11.352
メル	-11.3521
▁Philosophy	-11.3522
要素	-11.3522
ネス	-11.3523
▁deck	-11.3524
杨	-11.3524
▁Protection	-11.3524
總統	-11.3525
ほぼ	-11.3527
▁Outstanding	-11.3527
Am	-11.3527
iro	-11.3528
にあたる	-11.3529
▁(2019)	-11.353
▁Facebook	-11.3531
▁Jacques	-11.3533
sman	-11.3533
1939	-11.3533
ポン	-11.3536
僕	-11.3537
Ca	-11.3538
▁Luke	-11.3539
▁inspiration	-11.3539
の世界	-11.354
畫	-11.354
▁honorary	-11.3543
AB	-11.3544
▁lo	-11.3547
陰	-11.3548
▁forwards	-11.3548
PD	-11.3549
战争	-11.355
▁talent	-11.355
▁dispute	-11.355
ント	-11.3554
▁Regular	-11.3555
▁Planet	-11.3556
設有	-11.3561
▁traded	-11.3562
一起	-11.3564
▁clinical	-11.3564
▁outer	-11.3565
▁Steel	-11.3566
▁Eight	-11.3566
一定	-11.3567
、5	-11.3567
▁suggest	-11.3569
bha	-11.3571
▁LA	-11.3572
▁completing	-11.3572
▁Mol	-11.3574
hard	-11.3575
iel	-11.3577
▁Ted	-11.3579
▁Abraham	-11.3581
ラス	-11.3582
▁出演	-11.3583
HA	-11.3584
▁Ran	-11.3585
hua	-11.3585
ナン	-11.3586
▁【	-11.3589
Har	-11.359
▁alcohol	-11.3591
▁Multi	-11.3593
▁funded	-11.3594
某	-11.3597
▁editions	-11.3599
▁treaty	-11.3599
することで	-11.36
▁1857	-11.36
オール	-11.3602
拿	-11.3604
ground	-11.3606
▁Mega	-11.3607
1944	-11.3609
▁physics	-11.3609
uring	-11.3611
▁Hurricane	-11.3611
っており	-11.3611
共通	-11.3612
▁virus	-11.3612
ür	-11.3613
▁integrated	-11.3614
同一	-11.3614
ain	-11.3616
▁principles	-11.3616
▁Anton	-11.3616
▁basin	-11.3616
tta	-11.3617
▁Columbus	-11.3621
系の	-11.3621
▁doesn	-11.3621
投入	-11.3622
ING	-11.3623
CI	-11.3623
▁Engineers	-11.3623
プレー	-11.3624
僧	-11.3624
观	-11.3625
▁Allied	-11.3625
▁Sr	-11.3626
並且	-11.3626
▁81	-11.3626
uga	-11.3627
までは	-11.3629
▁partially	-11.3629
控	-11.3631
がない	-11.3631
▁lose	-11.3632
貴族	-11.3633
▁exhibit	-11.3633
▁fresh	-11.3634
ナイ	-11.3636
が多く	-11.3636
比較	-11.3637
▁beating	-11.3638
スタート	-11.3638
▁Ul	-11.3638
▁SO	-11.3638
▁matters	-11.3639
gas	-11.3639
▁Nas	-11.364
▁ongoing	-11.364
電視劇	-11.3641
ルド	-11.3644
寛	-11.3645
▁Democrat	-11.3647
▁1991.	-11.3649
nin	-11.3649
▁Ghana	-11.365
閉	-11.3656
宣言	-11.3656
▁Gregory	-11.3657
種類	-11.3657
▁Mann	-11.3659
Ko	-11.3659
▁Religion	-11.366
mmer	-11.3661
もあり	-11.3661
▁clothing	-11.3661
▁rhythm	-11.3661
NG	-11.3662
к	-11.3663
解説	-11.3664
▁Sheffield	-11.3664
以前	-11.3664
▁Delta	-11.3666
▁Sean	-11.3666
確認	-11.3667
▁Johann	-11.3668
rated	-11.3669
の名	-11.3669
▁Southeast	-11.367
▁leaf	-11.367
▁Isaac	-11.3672
▁establishing	-11.3673
▁Renaissance	-11.3673
▁runners	-11.3673
人生	-11.3673
▁Path	-11.3674
レット	-11.3675
dd	-11.3676
亡	-11.3677
▁Wi	-11.3678
anna	-11.3679
▁Liu	-11.368
がいる	-11.368
▁electricity	-11.368
▁Store	-11.3684
IL	-11.3684
▁Kid	-11.3685
action	-11.3685
▁responded	-11.3686
▁wrong	-11.3686
▁closure	-11.3688
監	-11.3693
▁tribute	-11.3694
leg	-11.3694
制御	-11.3694
コード	-11.3694
十分	-11.3695
▁Phillips	-11.3695
淳	-11.3695
让	-11.3699
笠	-11.3699
pers	-11.3699
遇	-11.3701
史上	-11.3702
出生	-11.3703
ency	-11.3703
▁banned	-11.3704
ego	-11.3706
王子	-11.3707
oph	-11.3708
圧	-11.3712
uv	-11.3712
▁opponent	-11.3712
▁songwriter	-11.3712
two	-11.3714
视	-11.3714
重要な	-11.3716
デュ	-11.3717
▁Students	-11.3717
歐洲	-11.3717
lé	-11.3719
を務める	-11.372
▁Left	-11.3721
▁legislature	-11.3722
▁Kerala	-11.3722
郵便局	-11.3724
film	-11.3724
▁express	-11.3725
1946	-11.3726
金属	-11.3726
クル	-11.3728
▁Christians	-11.3728
▁farmers	-11.3728
勝ち	-11.3728
▁expand	-11.3729
sti	-11.3729
▁lift	-11.3729
▁diseases	-11.3729
奪	-11.373
▁picked	-11.3731
▁hat	-11.3732
▁°	-11.3733
天使	-11.3734
night	-11.3735
▁timber	-11.3735
▁音楽	-11.3738
▁tournaments	-11.3739
瑪	-11.3739
贈	-11.3739
▁Kill	-11.3742
だい	-11.3742
ér	-11.3743
ats	-11.3743
例えば	-11.3743
1980	-11.3744
▁1986,	-11.3745
▁SE	-11.3747
▁tons	-11.3748
▁battalion	-11.3748
▁Teams	-11.3749
▁Reading	-11.3752
長崎	-11.3752
▁pitch	-11.3753
▁白	-11.3754
)11	-11.3754
連合	-11.3755
▁focuses	-11.3757
イングランド	-11.3757
稱為	-11.3758
kai	-11.3758
哲学	-11.3758
大部分	-11.376
▁benefits	-11.376
▁Poetry	-11.3762
意大利	-11.3762
提案	-11.3762
▁roll	-11.3764
1947	-11.3766
▁displayed	-11.3766
▁choir	-11.3766
のアルバム	-11.3767
本作	-11.3768
▁Initially	-11.3768
onic	-11.3768
▁enjoyed	-11.3769
LS	-11.3769
logy	-11.377
▁charter	-11.3773
ザン	-11.3774
舉行	-11.3775
再次	-11.3775
政治家	-11.3775
▁drafted	-11.3776
ule	-11.3777
▁Pont	-11.3777
されたが	-11.3779
中华人民共和国	-11.3779
▁toured	-11.378
▁gap	-11.3781
oke	-11.3782
偽	-11.3783
冊	-11.3784
福岡	-11.3784
謝	-11.3784
▁expert	-11.3784
新たな	-11.3785
ening	-11.3786
alo	-11.3786
執	-11.3788
▁1985,	-11.3789
記者	-11.3789
調整	-11.379
▁raid	-11.3791
▁dismissed	-11.3792
▁cemetery	-11.3793
▁supports	-11.3793
分野	-11.3794
▁Math	-11.3797
▁generated	-11.3798
▁Wen	-11.3799
ノン	-11.38
▁submarine	-11.3801
oda	-11.3801
▁driven	-11.3805
▁Reed	-11.3806
遭	-11.3807
▁fled	-11.3808
▁battery	-11.3809
发现	-11.3809
▁construct	-11.381
zz	-11.381
▁Ky	-11.381
▁Gau	-11.3811
制限	-11.3812
▁Cuban	-11.3812
OT	-11.3813
▁rapper	-11.3813
bia	-11.3814
▁radical	-11.3816
1920	-11.3816
エー	-11.3816
オランダ	-11.3819
▁biological	-11.382
▁Celtic	-11.3821
▁Return	-11.3822
▁else	-11.3822
member	-11.3822
▁(1995)	-11.3823
▁elder	-11.3824
▁Sweet	-11.3824
▁examination	-11.3828
対策	-11.3829
▁submitted	-11.3829
▁hope	-11.3831
却	-11.3832
中止	-11.3835
民間	-11.3836
▁destroy	-11.3836
▁Fictional	-11.3837
▁160	-11.3838
アンド	-11.3838
moto	-11.3839
▁legs	-11.384
(,),	-11.3841
▁Arabia	-11.3841
▁Blake	-11.3841
不足	-11.3844
▁bull	-11.3844
▁Clarke	-11.3847
ways	-11.3847
▁resignation	-11.3848
券	-11.3848
幾	-11.3849
吉田	-11.3849
一名	-11.385
rad	-11.3851
▁apply	-11.3851
▁jury	-11.3852
▁sessions	-11.3853
▁shall	-11.3854
を設置	-11.3855
読み	-11.3858
後期	-11.3859
受賞	-11.3859
▁orbit	-11.3861
new	-11.3861
nov	-11.3863
ão	-11.3863
知事	-11.3865
▁partners	-11.3866
フレ	-11.3867
ほとんど	-11.3868
▁(10	-11.3869
▁編曲	-11.387
概念	-11.3871
▁speaking	-11.3871
▁Thi	-11.3871
▁(9	-11.3872
1,000	-11.3872
▁epi	-11.3873
▁ST	-11.3874
人士	-11.3874
▁Dia	-11.3875
読	-11.3876
のもの	-11.3877
Per	-11.3877
漫畫	-11.3878
▁fundamental	-11.3878
就任	-11.3878
▁mechanism	-11.388
Unincorporated	-11.388
▁tanks	-11.3883
▁Milwaukee	-11.3887
統計	-11.3887
ラブ	-11.3887
▁Harvey	-11.3887
tric	-11.389
会場	-11.389
▁regulations	-11.3891
enburg	-11.3891
蔡	-11.3891
▁emphasis	-11.3891
伝説	-11.3892
rov	-11.3892
▁keeping	-11.3895
▁god	-11.3895
圭	-11.3896
▁revolution	-11.3896
▁Gy	-11.3896
のメンバー	-11.3897
tine	-11.3898
ario	-11.3899
VA	-11.39
▁1989.	-11.3903
fl	-11.3904
▁falling	-11.3904
▁長	-11.3906
uta	-11.3907
改善	-11.3907
▁belief	-11.3907
▁Sex	-11.3909
劍	-11.3909
raj	-11.391
bot	-11.3911
kal	-11.3914
Hi	-11.3914
タル	-11.3914
▁provinces	-11.3914
utter	-11.3916
ode	-11.3916
▁victim	-11.3916
ste	-11.3919
▁Paulo	-11.3919
▁assists	-11.3922
▁Hero	-11.3924
中華民國	-11.3924
患者	-11.3925
動画	-11.3927
計算	-11.3927
▁Flying	-11.3928
▁Nat	-11.3929
PI	-11.3929
障害	-11.393
▁Swan	-11.393
环	-11.3931
揚	-11.3932
spir	-11.3932
hang	-11.3933
▁Workers	-11.3933
ingham	-11.3934
Ed	-11.3936
phon	-11.3936
DO	-11.3937
lla	-11.3937
▁600	-11.3937
900	-11.3939
時は	-11.394
敦	-11.3945
▁linear	-11.3945
卢	-11.3945
思い	-11.3946
習	-11.3948
▁register	-11.3948
▁水	-11.3948
町の	-11.3952
(12	-11.3953
ssel	-11.3953
▁neuro	-11.3953
▁discussed	-11.3955
cht	-11.3956
デス	-11.3957
▁moves	-11.3958
graph	-11.3958
▁minority	-11.3959
▁syndrome	-11.3959
▁apart	-11.3959
▁Lie	-11.396
配置	-11.3961
▁lock	-11.3961
無法	-11.3961
tie	-11.3963
▁exercise	-11.3966
▁truck	-11.3967
▁reveals	-11.3967
説明	-11.3968
▁sang	-11.3971
▁attractions	-11.3971
▁Crime	-11.3972
▁conductor	-11.3972
plane	-11.3973
▁Grande	-11.3974
現場	-11.3975
捕	-11.3975
▁bishops	-11.3975
▁patron	-11.3976
堅	-11.3976
科技	-11.3978
▁partly	-11.398
▁continuous	-11.3981
Win	-11.3982
▁closing	-11.3982
▁neither	-11.3982
month	-11.3984
▁tool	-11.3984
▁Well	-11.3986
eon	-11.3986
意見	-11.3986
薄	-11.3987
where	-11.3988
施行	-11.3988
不可	-11.3992
▁Pad	-11.3992
▁roots	-11.3993
Ex	-11.3995
▁discussion	-11.3996
▁select	-11.3999
榮	-11.4
主催	-11.4
▁Throughout	-11.4001
▁Environment	-11.4001
反対	-11.4002
▁Laura	-11.4003
▁Gla	-11.4003
杰	-11.4004
What	-11.4004
▁coat	-11.4005
▁Popular	-11.4005
▁nest	-11.4005
osis	-11.4006
▁Cardinals	-11.4007
UP	-11.4007
bl	-11.4008
▁71	-11.4009
息	-11.4009
▁Dictionary	-11.4009
▁Idaho	-11.401
▁negotiations	-11.401
▁División	-11.4014
▁grey	-11.4015
校舎	-11.4016
т	-11.4016
烈	-11.4017
騎士	-11.4018
▁Pla	-11.4019
▁2-	-11.4019
)12	-11.4019
▁borough	-11.402
▁Higher	-11.402
(8	-11.4022
nel	-11.4022
▁baby	-11.4023
▁bonus	-11.4025
エリア	-11.4025
▁touring	-11.4025
▁Cabinet	-11.4028
震	-11.403
▁Any	-11.4033
▁3.	-11.4033
oku	-11.4034
許多	-11.4034
令和	-11.4034
▁Map	-11.4035
▁Kom	-11.4035
▁Bros	-11.4036
▁graph	-11.4038
▁involves	-11.4039
TT	-11.4039
fall	-11.4039
株	-11.4041
▁respective	-11.4042
▁log	-11.4042
▁lu	-11.4042
基準	-11.4042
ランキング	-11.4044
▁custom	-11.4045
▁rocket	-11.4045
氷	-11.4045
1964	-11.4046
▁monastery	-11.4046
プログラム	-11.4046
▁fun	-11.4047
▁dominated	-11.4047
徹	-11.405
▁Kre	-11.405
審	-11.4051
▁suburb	-11.4051
▁throw	-11.4055
▁assisted	-11.4056
全ての	-11.4056
▁Pot	-11.4056
▁Kumar	-11.4058
▁dress	-11.4059
BE	-11.4059
▁Montgomery	-11.406
▁Stockholm	-11.406
▁Fre	-11.406
记	-11.4061
▁Durham	-11.4061
▁Furthermore	-11.4061
プレイヤー	-11.4062
▁closer	-11.4062
▁Sad	-11.4063
渋谷	-11.4065
功能	-11.4066
▁Franz	-11.4068
▁ward	-11.4068
▁charity	-11.4069
ンズ	-11.4069
HD	-11.4071
▁Than	-11.4071
▁Remix	-11.4075
▁1800	-11.4076
▁tomb	-11.4076
▁1830	-11.4077
▁str	-11.4077
▁essential	-11.4078
▁Newton	-11.4079
▁ob	-11.408
をした	-11.408
呈	-11.4081
▁traditions	-11.4081
▁topics	-11.4082
蓋	-11.4082
附近	-11.4083
開通	-11.4084
▁compiled	-11.4084
豆	-11.4085
ink	-11.4086
yang	-11.4087
▁lowest	-11.4087
▁Ellis	-11.4087
▁novelist	-11.4087
-14	-11.4087
NP	-11.4089
呂	-11.409
▁Clo	-11.4092
▁hydro	-11.4093
妃	-11.4093
2.5	-11.4095
▁Musicians	-11.4095
lea	-11.4096
▁Concert	-11.4097
1942	-11.4097
▁principle	-11.4097
▁Nashville	-11.4097
hoe	-11.4098
▁ballot	-11.41
Black	-11.4101
▁Aaron	-11.4101
▁Wildlife	-11.4101
活动	-11.4102
処理	-11.4102
▁Reform	-11.4103
ディア	-11.4104
ère	-11.4105
孙	-11.4105
穆	-11.4105
一方で	-11.4107
▁sisters	-11.4108
▁Epi	-11.4109
▁Watch	-11.4109
▁advice	-11.411
▁Actress	-11.4111
assi	-11.4112
▁defend	-11.4113
になって	-11.4114
sten	-11.4115
▁settlers	-11.4116
▁Julian	-11.4118
▁Sau	-11.4118
wel	-11.4119
▁Complete	-11.412
rak	-11.4121
エイ	-11.4128
д	-11.4128
▁Version	-11.4129
ヶ	-11.413
▁Provincial	-11.413
▁1945,	-11.4131
▁breaking	-11.4134
1972	-11.4134
▁Solo	-11.4135
簡	-11.4135
支店	-11.4136
@	-11.4137
大和	-11.4138
▁Link	-11.4139
pit	-11.4144
▁dream	-11.4144
などに	-11.4145
▁decide	-11.4145
▁Bear	-11.4146
の研究	-11.4146
豐	-11.4147
She	-11.4148
▁Sid	-11.415
▁decides	-11.4151
sex	-11.4151
▁Travel	-11.4152
駅間	-11.4152
mine	-11.4153
sign	-11.4154
songwriter	-11.4155
has	-11.4158
ome	-11.4158
沿	-11.4162
貨物	-11.4163
▁feat	-11.4164
▁depression	-11.4167
の一人	-11.4169
アリ	-11.4169
▁pitcher	-11.417
rom	-11.4171
▁ro	-11.4173
仙台	-11.4174
August	-11.4174
反応	-11.4175
映	-11.4176
▁outdoor	-11.4177
itt	-11.4179
▁specialist	-11.4179
▁1858	-11.4179
▁warning	-11.4184
棟	-11.4184
▁Brunswick	-11.4184
▁Harbor	-11.4185
▁ho	-11.4186
ics	-11.4188
:《	-11.4188
1.5	-11.4189
燕	-11.4189
是由	-11.4189
秘密	-11.4192
▁trouble	-11.4193
▁Essex	-11.4194
▁Use	-11.4195
ストーリー	-11.4195
の子	-11.4196
表面	-11.4196
page	-11.4197
MD	-11.4198
▁smooth	-11.4198
シル	-11.4199
▁sugar	-11.4199
▁receiver	-11.42
lac	-11.4201
▁aim	-11.4204
▁nearest	-11.4206
ルート	-11.4206
▁unsuccessful	-11.4206
清水	-11.4207
铁	-11.4207
▁cooperation	-11.4208
▁intention	-11.4208
▁rising	-11.4208
▁playoff	-11.4209
ition	-11.4209
▁affect	-11.421
▁fer	-11.4212
辞	-11.4212
▁1990.	-11.4214
▁photographer	-11.4214
▁Lau	-11.4216
▁immigrants	-11.4217
And	-11.4218
▁Oscar	-11.4218
▁Pete	-11.4221
▁800	-11.4221
▁Events	-11.4222
つき	-11.4224
▁(1993)	-11.4224
▁Legend	-11.4224
TR	-11.4225
支配	-11.4225
▁Cameron	-11.4226
June	-11.4227
ード	-11.4228
EN	-11.4228
多く	-11.4229
▁competitors	-11.423
1937	-11.423
俄	-11.4232
規模	-11.4232
Te	-11.4233
▁midfielder	-11.4234
▁略歴	-11.4236
adr	-11.4237
Ph	-11.4237
デイ	-11.4237
▁delivery	-11.4238
理事	-11.424
▁op	-11.424
胸	-11.424
▁exclusively	-11.4241
根據	-11.4241
▁temperatures	-11.4241
コンピュータ	-11.4242
▁heir	-11.4243
▁circumstances	-11.4243
第一次	-11.4243
札幌	-11.4245
観測	-11.4246
mol	-11.4247
▁patterns	-11.4248
▁marry	-11.4248
written	-11.425
sal	-11.425
rine	-11.4251
次の	-11.4251
rant	-11.4253
▁earn	-11.4254
長い	-11.4254
▁Prague	-11.4255
tas	-11.4256
菊	-11.4256
▁Ernest	-11.4256
▁Dec	-11.4257
小說	-11.4257
藝術	-11.4257
▁Taxonomy	-11.4259
▁1854	-11.4261
▁borders	-11.4261
ashi	-11.4262
space	-11.4262
電車	-11.4264
われ	-11.4265
kill	-11.4265
▁diplomatic	-11.4265
ことが多い	-11.4266
▁Text	-11.4267
pr	-11.4268
▁Vietnamese	-11.4269
▁diverse	-11.427
ィ	-11.4271
カバー	-11.4272
宫	-11.4273
藤原	-11.4273
▁tend	-11.4274
▁Piano	-11.4275
▁periods	-11.4275
、2010	-11.4275
CF	-11.4276
貿易	-11.4277
糖	-11.4277
▁Spa	-11.4277
エピソード	-11.4278
▁enzyme	-11.4278
▁Archives	-11.4278
▁lawsuit	-11.4278
南北	-11.4281
▁parks	-11.4281
▁decisions	-11.4281
ことができる	-11.4281
▁Dol	-11.4282
啓	-11.4282
アーティスト	-11.4282
▁bed	-11.4283
▁den	-11.4283
プル	-11.4284
田村	-11.4285
speed	-11.4285
ree	-11.4286
公路	-11.4287
▁fitted	-11.4288
质	-11.4292
計劃	-11.4292
н	-11.4292
基礎	-11.4292
quin	-11.4293
▁fee	-11.4294
仲間	-11.4295
eni	-11.4296
グランプリ	-11.4296
(10	-11.4297
ND	-11.4297
▁1855	-11.4298
唱	-11.4299
▁midfielders	-11.4299
▁golf	-11.4301
mia	-11.4302
2,000	-11.4303
▁collapse	-11.4305
▁Yugoslavia	-11.4305
▁Liberty	-11.4306
▁Mine	-11.4309
▁repeated	-11.4309
▁originated	-11.431
一部の	-11.431
祝	-11.4311
▁managing	-11.4311
▁BS	-11.4313
概	-11.4314
名前	-11.4314
スタン	-11.4314
讀	-11.4314
▁97	-11.4315
▁Fra	-11.4317
▁slave	-11.4317
tone	-11.432
▁2.5	-11.4321
類似	-11.4322
獨	-11.4324
剤	-11.4324
uba	-11.4326
▁produces	-11.4327
裁	-11.4328
蛇	-11.4329
▁Mobile	-11.4329
裂	-11.4329
▁NC	-11.4329
▁intervention	-11.4329
河川	-11.433
戻	-11.4331
▁86	-11.4332
unt	-11.4332
link	-11.4332
的一個	-11.4332
him	-11.4333
▁Miguel	-11.4334
▁overseas	-11.4334
о	-11.4336
1967	-11.4337
▁Jamaica	-11.4337
1943	-11.4337
▁bay	-11.4338
▁AFC	-11.434
買	-11.434
掛	-11.434
改正	-11.4342
巨大	-11.4344
▁describing	-11.4344
cra	-11.4345
gor	-11.4346
ジョー	-11.4347
弓	-11.4348
統	-11.4349
▁Circle	-11.435
gla	-11.435
文書	-11.4352
tail	-11.4353
▁convert	-11.4354
▁proteins	-11.4355
▁camps	-11.4356
▁gear	-11.4357
▁Semi	-11.4357
▁Dale	-11.4358
▁Somerset	-11.4358
平和	-11.4358
MF	-11.4359
▁rated	-11.4362
eth	-11.4364
▁Nintendo	-11.4365
▁Cox	-11.4368
ops	-11.4368
の手	-11.4369
▁manufacturers	-11.4369
サイド	-11.437
▁manage	-11.4372
fan	-11.4373
South	-11.4374
▁Oakland	-11.4374
軌	-11.4375
。」	-11.4375
アフリカ	-11.4375
パス	-11.4376
▁requested	-11.4377
▁belt	-11.4378
▁Spencer	-11.4378
▁Estate	-11.4378
=5	-11.4379
を発表	-11.438
▁Princeton	-11.4381
▁Commerce	-11.4381
rik	-11.4382
タレント	-11.4382
▁limits	-11.4383
▁mall	-11.4385
千葉	-11.4386
uka	-11.4387
▁origins	-11.4388
選択	-11.439
inda	-11.4392
▁seeing	-11.4394
ソロ	-11.4394
▁Total	-11.4394
▁Churches	-11.4395
プレ	-11.4396
続	-11.4396
=6	-11.4397
▁quarterback	-11.4397
▁dominant	-11.4397
Fa	-11.4398
▁Abdul	-11.4399
nk	-11.44
▁Beginning	-11.44
▁GT	-11.4402
▁Danny	-11.4403
マス	-11.4404
▁ver	-11.4404
1965	-11.4404
▁vocalist	-11.441
odo	-11.441
▁framework	-11.4411
▁athlete	-11.4412
▁Owen	-11.4412
ced	-11.4413
代理	-11.4414
練	-11.4414
羊	-11.4415
▁terminus	-11.4416
裁判	-11.4416
AN	-11.4416
lim	-11.4417
▁initiated	-11.4417
Mon	-11.442
▁permission	-11.442
▁presentation	-11.442
大字	-11.4421
▁Forum	-11.4421
▁engagement	-11.4422
▁manufactured	-11.4422
廠	-11.4422
als	-11.4423
已经	-11.4423
only	-11.4424
卒	-11.4424
嶋	-11.4424
特急	-11.4426
収	-11.4426
▁Fin	-11.4427
April	-11.4427
▁spaces	-11.4427
/10	-11.4428
hel	-11.4429
▁animation	-11.4429
▁contributing	-11.4429
▁engineers	-11.443
▁Chilean	-11.4431
eus	-11.4431
珍	-11.4433
▁corresponding	-11.4434
▁housed	-11.4437
競走	-11.4437
▁#2	-11.4439
▁ス	-11.444
▁Alt	-11.4441
恒	-11.4442
▁Therefore	-11.4443
vet	-11.4444
▁input	-11.4444
1936	-11.4445
country	-11.4447
▁tea	-11.4447
▁participating	-11.4448
8,000	-11.4448
▁alien	-11.4448
▁Bir	-11.4449
▁photos	-11.4454
▁Indies	-11.4455
錄	-11.4455
phi	-11.4455
EF	-11.4456
▁Bennett	-11.4456
物質	-11.4456
▁87	-11.4457
伏	-11.4458
▁Got	-11.4459
宅	-11.446
person	-11.4462
tation	-11.4463
神戸	-11.4464
gam	-11.4464
▁Monday	-11.4464
try	-11.4464
換	-11.4464
遷	-11.4466
▁reaches	-11.4467
▁boundaries	-11.4467
▁Border	-11.4469
に改称	-11.4469
打ち	-11.447
きた	-11.4471
相手	-11.4472
▁Ah	-11.4472
グリーン	-11.4472
roy	-11.4473
▁cattle	-11.4477
▁illustrated	-11.448
める	-11.4481
▁nickname	-11.4485
▁Eagle	-11.4489
rim	-11.4489
▁99	-11.4489
▁Rec	-11.449
ope	-11.4491
▁Cher	-11.4491
▁ride	-11.4491
▁Cyprus	-11.4491
IR	-11.4493
▁suitable	-11.4493
穿	-11.4493
(2004	-11.4494
たり	-11.4494
▁Thor	-11.4495
gia	-11.4495
▁tu	-11.4499
FE	-11.4499
▁queen	-11.45
▁exposure	-11.45
▁Salvador	-11.4501
▁Pr	-11.4501
▁pi	-11.4502
▁bright	-11.4502
central	-11.4505
▁enforcement	-11.4506
▁preserve	-11.451
▁updated	-11.451
▁Sab	-11.451
▁Ships	-11.4511
German	-11.4511
▁internationally	-11.4511
挙	-11.4512
▁usage	-11.4512
ラル	-11.4513
世代	-11.4513
▁transform	-11.4513
▁sha	-11.4517
▁exhibited	-11.4517
▁10,000	-11.4518
フィー	-11.452
标	-11.4521
▁sleep	-11.4521
パラ	-11.4523
180	-11.4523
模	-11.4525
▁Av	-11.4525
话	-11.4527
▁disorder	-11.4527
▁weak	-11.4527
押	-11.4528
理解	-11.4529
▁Maha	-11.4529
▁Hitler	-11.453
コミック	-11.4531
▁gauge	-11.4532
Pe	-11.4532
▁handle	-11.4533
▁locally	-11.4534
▁aggregate	-11.4534
thi	-11.4534
共著	-11.4536
▁te	-11.4537
山本	-11.4537
1978	-11.4538
▁Achievement	-11.4539
知識	-11.4539
▁pump	-11.4539
lves	-11.454
▁apparent	-11.4542
森林	-11.4544
▁(1994)	-11.4546
▁Tal	-11.4548
▁Roosevelt	-11.4548
▁Ambassador	-11.4549
uni	-11.455
▁Again	-11.4552
1966	-11.4554
▁Change	-11.4554
▁Que	-11.4556
▁Ras	-11.4556
gger	-11.4558
bell	-11.4559
住民	-11.4563
▁populations	-11.4563
En	-11.4567
▁reflect	-11.4567
刊行	-11.4567
▁Shakespeare	-11.4568
▁constituencies	-11.4568
▁beauty	-11.4568
ベイ	-11.457
är	-11.457
stad	-11.4571
?)	-11.4572
▁Saskatchewan	-11.4573
最终	-11.4573
戦後	-11.4573
▁101	-11.4573
コール	-11.4574
改良	-11.4574
inter	-11.4575
▁hunting	-11.4576
▁Yellow	-11.4577
▁trials	-11.4577
▁84	-11.4577
つく	-11.4577
不過	-11.4579
print	-11.4579
▁Todd	-11.458
▁valid	-11.4582
▁crossed	-11.4582
俄罗斯	-11.4582
▁metropolitan	-11.4582
▁Folk	-11.4583
澳門	-11.4583
遺跡	-11.4583
鐵路	-11.4583
tile	-11.4583
▁survive	-11.4585
▁Fight	-11.4585
圈	-11.4587
▁dangerous	-11.4587
▁Hindi	-11.4588
服务	-11.4589
isa	-11.4591
プロデュース	-11.4592
etic	-11.4592
▁Cle	-11.4596
1981	-11.4597
そこで	-11.4597
AR	-11.4598
issa	-11.4598
型の	-11.4599
▁drum	-11.46
▁triple	-11.4601
テレビドラマ	-11.4601
▁Amateur	-11.4602
▁Henri	-11.4602
▁1856	-11.4603
▁Mills	-11.4604
▁à	-11.4605
▁Interview	-11.4607
▁marks	-11.4607
▁{	-11.4607
しょう	-11.4608
▁1984,	-11.4608
ators	-11.4608
▁OF	-11.4608
-23	-11.4608
▁Fur	-11.461
▁Flag	-11.4611
の戦い	-11.4612
▁hero	-11.4613
▁fe	-11.4614
▁sin	-11.4614
rill	-11.4614
▁Foot	-11.4616
狼	-11.4616
别	-11.4616
▁identical	-11.4616
▁Too	-11.4618
▁clearly	-11.4618
▁Foster	-11.4618
▁hop	-11.462
pra	-11.462
▁Devon	-11.462
』、『	-11.462
聯盟	-11.4622
▁distinction	-11.4623
包含	-11.4624
▁pianist	-11.4625
▁waste	-11.4625
兵器	-11.4625
▁neo	-11.4625
founder	-11.4627
turn	-11.4629
▁Rama	-11.463
▁connections	-11.463
▁va	-11.463
コーチ	-11.4632
憲法	-11.4633
1938	-11.4633
到了	-11.4633
▁Politicians	-11.4634
TP	-11.4634
液	-11.4635
▁signature	-11.4635
加盟	-11.4636
▁Panama	-11.4637
破壊	-11.4638
▁shoot	-11.4639
▁reporter	-11.464
当地	-11.464
幻	-11.4642
San	-11.4643
SN	-11.4643
tens	-11.4644
▁collective	-11.4645
▁knee	-11.4646
▁decrease	-11.4646
▁Lucas	-11.4646
▁wish	-11.4646
強い	-11.4646
▁deliver	-11.4648
▁sufficient	-11.4648
したこと	-11.4648
▁prototype	-11.465
▁Bee	-11.4651
▁Aires	-11.4652
ume	-11.4652
▁wait	-11.4653
▁Uganda	-11.4653
▁depicted	-11.4654
▁Baronet	-11.4655
帳	-11.4655
second	-11.4656
キュ	-11.4659
裔	-11.4659
▁isolated	-11.466
▁Sussex	-11.466
▁bat	-11.466
▁legend	-11.466
パル	-11.4661
▁rarely	-11.4663
▁Pearl	-11.4663
扎	-11.4664
▁accessible	-11.4664
▁unincorporated	-11.4665
▁1988.	-11.4665
ワールドカップ	-11.4665
项	-11.4667
ista	-11.4668
叫	-11.4669
の場合	-11.4669
▁synonym	-11.467
)7	-11.467
GS	-11.4671
袋	-11.4674
▁shut	-11.4675
負責	-11.4677
バトル	-11.4677
▁wealth	-11.4677
▁Color	-11.4678
▁retreat	-11.4679
ビン	-11.4681
扱い	-11.4684
▁NASA	-11.4684
ラグビー	-11.4684
▁maps	-11.4686
▁beam	-11.4686
▁Cass	-11.4687
▁東京都	-11.4687
兩個	-11.4688
▁neck	-11.4688
▁anchor	-11.4688
ked	-11.4688
認識	-11.4689
▁doubt	-11.4689
▁イ	-11.469
▁grows	-11.469
▁assessment	-11.4691
▁Revolutionary	-11.4691
▁Syn	-11.4692
▁Citations	-11.4692
EM	-11.4693
決勝	-11.4693
▁plastic	-11.4694
▁Maurice	-11.4694
▁Stories	-11.4695
▁Iraqi	-11.4695
DD	-11.4697
▁Tree	-11.47
歌詞	-11.4701
▁Ronald	-11.4703
▁travelled	-11.4705
▁Bert	-11.4705
ê	-11.4705
▁Cab	-11.4707
▁sailed	-11.4707
rap	-11.4709
▁Perth	-11.4709
ered	-11.4711
回転	-11.4711
▁Sul	-11.4712
身体	-11.4716
▁Athletes	-11.4716
必	-11.4716
wy	-11.4716
fit	-11.4716
▁Course	-11.4717
▁Beau	-11.4717
▁Palestine	-11.4718
▁preparation	-11.4719
elia	-11.4719
ime	-11.4721
稲	-11.4723
机构	-11.4723
盧	-11.4723
hem	-11.4723
欧洲	-11.4723
▁Junction	-11.4724
チュー	-11.4724
医師	-11.4724
▁Lisa	-11.4727
轮	-11.4728
▁その後	-11.4728
鳳	-11.4728
書店	-11.4729
ワー	-11.4729
武装	-11.4731
焼	-11.4731
ales	-11.4732
掌	-11.4733
sam	-11.4736
▁interviews	-11.4736
=0	-11.4737
練習	-11.4738
▁Quarter	-11.474
ダル	-11.474
▁Gate	-11.4741
輕	-11.4742
▁Cru	-11.4742
▁cavalry	-11.4743
台北	-11.4744
kins	-11.4744
▁sur	-11.4744
▁Bears	-11.4745
(6	-11.4747
active	-11.4749
しま	-11.4751
▁vertical	-11.4752
▁inducted	-11.4753
▁Match	-11.4755
▁ministry	-11.4758
ジュニア	-11.4758
を開始	-11.4758
越南	-11.4761
▁Pine	-11.4761
組成	-11.4761
▁Based	-11.4763
▁Colonial	-11.4763
▁hear	-11.4764
麥	-11.4765
OH	-11.4766
1953	-11.4768
cri	-11.4769
石川	-11.4771
▁practical	-11.4771
TU	-11.4772
▁congregation	-11.4772
盗	-11.4776
▁relegated	-11.4777
課程	-11.4778
▁compound	-11.4778
▁attendance	-11.4778
usa	-11.4779
unk	-11.4781
仕事	-11.4784
獨立	-11.4785
(2001	-11.4787
▁mines	-11.4787
▁Birds	-11.4788
書き	-11.4788
▁Zhang	-11.4788
▁seem	-11.4791
▁exhibitions	-11.4792
廷	-11.4792
KA	-11.4794
現象	-11.4795
染	-11.4796
趙	-11.4797
Cha	-11.48
1951	-11.48
▁encourage	-11.4801
連絡	-11.4802
zel	-11.4802
▁hyper	-11.4803
iger	-11.4806
作者	-11.4806
▁burial	-11.4807
複数の	-11.4807
▁answer	-11.4808
オーストラリア	-11.4809
録音	-11.4809
▁thereafter	-11.481
▁recognised	-11.481
▁Andre	-11.4811
▁bowl	-11.4812
▁Editor	-11.4813
▁exact	-11.4813
这一	-11.4817
▁Bak	-11.4817
參	-11.4818
▁logo	-11.4819
▁exclusive	-11.4821
舰	-11.4821
證	-11.4821
が存在する	-11.4821
▁bachelor	-11.4822
▁elsewhere	-11.4822
境内	-11.4823
名を	-11.4825
いち	-11.4825
size	-11.4827
▁leagues	-11.4827
rod	-11.483
▁filming	-11.483
▁PS	-11.4831
ame	-11.4836
▁universe	-11.4837
▁Mau	-11.4838
大学出身の人物	-11.4839
(11	-11.4839
▁Ang	-11.484
▁challenges	-11.4841
仅	-11.4841
開發	-11.4841
hab	-11.4842
▁Comedy	-11.4842
とされている	-11.4842
▁interface	-11.4843
▁Net	-11.4843
VI	-11.4844
两个	-11.4846
▁Religious	-11.4847
▁Rap	-11.4847
证	-11.4847
地理	-11.4848
東映	-11.4849
高橋	-11.4849
担	-11.4849
▁Obama	-11.4852
▁riding	-11.4852
▁horn	-11.4852
HR	-11.4853
▁restaurants	-11.4855
▁Style	-11.4856
▁Punjab	-11.4857
wise	-11.4859
apa	-11.4861
▁Row	-11.4861
gie	-11.4862
▁legacy	-11.4862
▁Gran	-11.4862
CE	-11.4864
晶	-11.4865
oro	-11.4866
▁Winner	-11.4866
▁96	-11.4866
▁Those	-11.4867
▁concerning	-11.4868
中文	-11.4868
▁Qui	-11.4868
CU	-11.487
アラ	-11.4871
▁birthday	-11.4871
▁siege	-11.4871
▁promoting	-11.4872
▁Campus	-11.4872
м	-11.4872
THE	-11.4877
▁Gothic	-11.4879
founded	-11.4881
▁Louise	-11.4881
keeper	-11.4882
▁明治	-11.4882
▁1982,	-11.4882
lau	-11.4883
江戸時代	-11.4884
▁landed	-11.4885
▁Colin	-11.4885
▁110	-11.4885
▁diocese	-11.4886
▁argument	-11.4889
▁Vic	-11.489
▁demonstrated	-11.489
▁Prison	-11.4891
▁Twitter	-11.4892
▁$4	-11.4893
デー	-11.4894
▁マ	-11.4894
▁superior	-11.4895
咲	-11.4896
▁ch	-11.49
▁Sei	-11.4901
▁machines	-11.4901
▁Sz	-11.4901
▁Articles	-11.4901
拠点	-11.4901
1973	-11.4901
▁supposed	-11.4901
▁acres	-11.4904
慈	-11.4906
▁Buenos	-11.4906
▁製作	-11.4907
時点で	-11.4909
1991	-11.491
Paul	-11.4911
▁atmosphere	-11.4911
▁restrictions	-11.4914
▁MC	-11.4916
ワイ	-11.4916
▁mask	-11.4917
側の	-11.4917
多数	-11.4917
Dr	-11.4918
▁fi	-11.4919
、2009	-11.492
木村	-11.4921
▁Literary	-11.4921
insky	-11.4922
bad	-11.4923
pil	-11.4923
▁1983,	-11.4923
▁国道	-11.4924
▁devoted	-11.4924
▁enrolled	-11.4924
▁labour	-11.4924
コンサート	-11.4926
▁circle	-11.4927
王座	-11.4927
▁governments	-11.4928
▁Cardinal	-11.4929
▁increases	-11.4929
▁extend	-11.4931
军事	-11.4932
="2"|	-11.4936
pass	-11.4936
名の	-11.4936
......	-11.494
▁Gol	-11.494
默	-11.4941
lly	-11.4942
再度	-11.4943
关系	-11.4943
Ni	-11.4944
シアター	-11.4944
▁Finally	-11.4945
▁eggs	-11.4946
hawk	-11.4947
▁Fil	-11.4948
▁CR	-11.4948
kes	-11.495
集团	-11.495
列车	-11.4951
▁relay	-11.4952
▁Isle	-11.4952
承認	-11.4953
BI	-11.4954
、2011	-11.4954
▁novelists	-11.4955
全球	-11.4955
▁doors	-11.4956
▁meat	-11.4957
▁athletics	-11.4957
http	-11.4958
lt	-11.4959
预	-11.4961
消防	-11.4961
綾	-11.4961
蝶	-11.4961
ete	-11.4962
▁Laboratory	-11.4962
▁Dev	-11.4964
oto	-11.4964
資金	-11.4966
あい	-11.4966
上げ	-11.4966
ハル	-11.4966
hk	-11.4968
▁sword	-11.4968
▁recalled	-11.4969
糸	-11.4971
▁Universe	-11.4972
部屋	-11.4973
▁comp	-11.4975
韓國	-11.4975
凡	-11.4976
▁Twenty	-11.4976
んでいる	-11.4979
児童	-11.4981
覚	-11.4982
▁Lip	-11.4982
▁altitude	-11.4984
aver	-11.4986
ios	-11.4987
tim	-11.4987
▁Marcus	-11.4989
▁ISO	-11.499
▁conventional	-11.499
球隊	-11.4991
▁Pier	-11.4991
效	-11.4991
▁98	-11.4992
duct	-11.4992
▁Northwest	-11.4992
拍	-11.4993
Ver	-11.4993
base	-11.4994
Pi	-11.4995
dent	-11.4995
物理	-11.4996
膜	-11.4996
▁harm	-11.4996
俄羅斯	-11.4996
▁Distinguished	-11.4997
▁announcement	-11.4997
▁1.0	-11.4997
▁Grammy	-11.4998
▁Georgian	-11.4999
rem	-11.4999
▁tune	-11.5
1977	-11.5
▁theatrical	-11.5002
▁Morocco	-11.5002
松本	-11.5004
伊勢	-11.5006
諸島	-11.5006
▁shopping	-11.5007
▁fighters	-11.5009
▁powered	-11.501
ls	-11.501
インターネット	-11.5012
▁root	-11.5013
ネットワーク	-11.5016
有名	-11.5016
超過	-11.5017
すべて	-11.5018
fire	-11.5018
▁connect	-11.5018
▁wire	-11.5019
▁Rush	-11.502
Sc	-11.502
▁Charter	-11.5021
▁1852	-11.5024
▁Novels	-11.5024
▁outstanding	-11.5025
▁collaborated	-11.5025
▁colors	-11.5025
▁Heaven	-11.5026
止め	-11.5026
自治体	-11.5026
出した	-11.5028
▁Face	-11.503
▁1986.	-11.5031
数学	-11.5031
▁Indianapolis	-11.5032
arn	-11.5033
ej	-11.5034
▁elect	-11.5035
廟	-11.5037
▁attempting	-11.5038
▁desert	-11.5038
▁Chess	-11.504
▁plain	-11.5042
▁prepare	-11.5042
▁Copenhagen	-11.5042
翻訳	-11.5042
mé	-11.5042
▁aviation	-11.5042
▁radar	-11.5042
ML	-11.5043
保持	-11.5043
司法	-11.5044
进入	-11.5044
意味	-11.5044
▁commitment	-11.5044
▁Elections	-11.5045
クー	-11.5046
脇	-11.5047
言葉	-11.5049
▁ruler	-11.5049
▁Sy	-11.505
▁Ble	-11.505
撤退	-11.5052
▁predecessor	-11.5052
坑	-11.5052
▁industries	-11.5052
旋	-11.5054
▁defended	-11.5054
lig	-11.5055
tty	-11.5056
▁ザ	-11.5057
トーク	-11.5059
込む	-11.506
機体	-11.506
新的	-11.5062
▁zero	-11.5063
▁fastest	-11.5064
▁wider	-11.5064
講談社	-11.5065
▁stroke	-11.5065
▁abolished	-11.5065
卿	-11.5066
捜査	-11.5066
月まで	-11.5067
、2007	-11.5071
に登場する	-11.5071
▁vector	-11.5072
茲	-11.5072
ify	-11.5075
いない	-11.5075
▁nephew	-11.5075
tten	-11.5076
▁台灣	-11.5076
▁2–0	-11.5076
別の	-11.5077
▁下	-11.5077
危機	-11.5078
rr	-11.508
▁Principal	-11.5081
アメリカの	-11.5082
ウィン	-11.5082
ブラジル	-11.5082
orum	-11.5083
▁Malta	-11.5084
HC	-11.5084
▁wealthy	-11.5085
If	-11.5085
main	-11.5086
集合	-11.5086
▁1851	-11.5086
▁seal	-11.5088
▁fr	-11.5088
ポール	-11.5089
uca	-11.5089
受け	-11.5089
ブレ	-11.509
▁HD	-11.5092
shore	-11.5093
会议	-11.5093
をもって	-11.5095
隨	-11.5096
▁Decision	-11.5096
▁extensively	-11.5097
恐怖	-11.5097
竣工	-11.5098
古典	-11.51
▁Raw	-11.5102
▁Overview	-11.5104
まま	-11.5107
▁fifteen	-11.5108
▁recovery	-11.5108
▁scar	-11.5109
icus	-11.511
統治	-11.5111
ched	-11.5112
海洋	-11.5114
Hu	-11.5115
July	-11.5116
▁Frankfurt	-11.5117
▁restricted	-11.5118
▁IF	-11.5119
毎年	-11.5119
tina	-11.512
1935	-11.512
▁traditionally	-11.512
▁Double	-11.5123
フィールド	-11.5123
ボーカル	-11.5124
引退	-11.5127
▁preferred	-11.5129
▁comm	-11.5129
▁Manila	-11.513
歯	-11.5131
-13	-11.5132
UR	-11.5134
▁Edmund	-11.5134
跨	-11.5134
二十	-11.5137
▁believes	-11.5137
▁Title	-11.5139
聚	-11.514
半島	-11.5141
ull	-11.5142
カメラ	-11.5143
▁Location	-11.5144
▁Rovers	-11.5144
▁Ship	-11.5145
Can	-11.5145
group	-11.5146
▁Gur	-11.5147
December	-11.5147
▁Tru	-11.515
SB	-11.515
▁tier	-11.515
face	-11.5152
責任	-11.5153
▁Swa	-11.5154
際に	-11.5155
és	-11.5156
that	-11.5156
▁saved	-11.5157
CT	-11.5157
共に	-11.5157
▁1987.	-11.5157
▁bell	-11.5158
(2003	-11.5158
▁Giovanni	-11.5159
▁Desert	-11.516
gio	-11.516
▁carrier	-11.5161
近年	-11.5162
BD	-11.5164
にした	-11.5165
答	-11.5166
▁Bang	-11.5166
▁Parks	-11.5166
▁Self	-11.5166
▁83	-11.5169
趣味	-11.5169
ici	-11.5171
▁inherited	-11.5172
碑	-11.5172
TM	-11.5172
▁Bryan	-11.5173
▁march	-11.5173
▁€	-11.5175
mun	-11.5176
Pre	-11.5177
real	-11.5177
▁burned	-11.5178
▁characteristic	-11.5178
齊	-11.518
購入	-11.518
1933	-11.5181
逮捕	-11.5183
TI	-11.5184
のこと	-11.5184
磨	-11.5184
ancy	-11.5186
NR	-11.5186
▁Curtis	-11.5186
æ	-11.5187
而且	-11.5187
▁Bab	-11.519
▁min	-11.5191
历	-11.5191
荘	-11.5194
最大の	-11.5197
東日本	-11.5197
▁Nancy	-11.5198
▁Tampa	-11.5198
ソ連	-11.52
▁placing	-11.52
來自	-11.52
▁François	-11.5202
長期	-11.5202
西南	-11.5202
▁departed	-11.5204
mos	-11.5204
▁quick	-11.5205
▁cloud	-11.5206
lines	-11.5206
pus	-11.5208
校長	-11.5208
▁compositions	-11.5208
滝	-11.5209
Bu	-11.5209
てしまう	-11.5212
▁economics	-11.5213
sse	-11.5214
ミス	-11.5214
▁(1992)	-11.5215
札	-11.5215
▁flood	-11.5216
▁Cave	-11.5217
民主党	-11.5219
▁Bran	-11.522
▁Software	-11.5221
▁Safety	-11.5221
、2008	-11.5223
争	-11.5224
鼻	-11.5226
▁fabric	-11.5226
▁Paralympics	-11.5228
/1	-11.523
一番	-11.5231
▁Santiago	-11.5231
▁accommodate	-11.5231
▁removal	-11.5231
空軍	-11.5234
接続	-11.5235
▁Form	-11.5237
▁Solomon	-11.5237
上に	-11.5237
分の	-11.5237
縮	-11.5241
▁True	-11.5242
記憶	-11.5242
mini	-11.5244
▁Erik	-11.5244
▁1979,	-11.5245
▁interpretation	-11.5245
▁entrepreneur	-11.5245
大的	-11.5246
总统	-11.5246
date	-11.5247
著名	-11.5248
戦隊	-11.5248
▁winds	-11.5251
▁chi	-11.5252
ivo	-11.5253
導演	-11.5253
ける	-11.5254
向上	-11.5255
▁pointed	-11.5256
▁bases	-11.5256
アクション	-11.5256
▁deemed	-11.5257
▁Westminster	-11.5257
ポー	-11.526
▁advisor	-11.526
池田	-11.526
rou	-11.5261
▁specialized	-11.5261
▁Estonian	-11.5263
等人	-11.5264
NET	-11.5266
▁Lynn	-11.5266
▁jet	-11.5268
ゲル	-11.5268
▁89	-11.5268
tsu	-11.5269
▁latest	-11.527
週間	-11.527
▁interchange	-11.5272
▁Edge	-11.5273
検	-11.5274
鈴	-11.5276
than	-11.5277
▁protagonist	-11.5277
▁Lac	-11.5279
▁looked	-11.5281
▁feminist	-11.5283
▁symptoms	-11.5283
▁Theory	-11.5284
▁Oil	-11.5284
wed	-11.5285
shin	-11.5287
にとって	-11.5288
燃料	-11.5288
length	-11.5288
▁Copa	-11.5288
ș	-11.5288
▁Electoral	-11.5289
▁tested	-11.5289
▁神	-11.5289
bay	-11.5291
▁guests	-11.5291
▁Cri	-11.5292
肥	-11.5292
▁作品	-11.5292
▁Mumbai	-11.5293
▁expensive	-11.5293
▁MTV	-11.5294
の作品	-11.5294
ovsky	-11.5296
sub	-11.5296
▁Spin	-11.5297
州の	-11.5298
ote	-11.53
暦	-11.53
▁influences	-11.53
對於	-11.5301
1976	-11.5302
▁artificial	-11.5303
▁creator	-11.5305
▁Queens	-11.5305
らない	-11.5306
▁Engineer	-11.5307
▁resumed	-11.5308
弦	-11.5308
▁海	-11.5309
▁Chester	-11.531
▁decorated	-11.531
▁crystal	-11.531
▁citizen	-11.5311
cas	-11.5312
▁Ever	-11.5313
▁till	-11.5314
▁tributary	-11.5314
カナダ	-11.5314
lies	-11.5314
▁Davies	-11.5314
▁Tiger	-11.5315
October	-11.532
接近	-11.532
▁grave	-11.5321
rry	-11.5322
適用	-11.5325
となって	-11.5326
mil	-11.5327
を行っている	-11.5327
第六	-11.5328
▁rifle	-11.533
▁Ari	-11.533
▁1847	-11.5332
▁Ok	-11.5332
▁1944,	-11.5333
wald	-11.5334
偉	-11.5334
▁OS	-11.5337
人员	-11.5338
盃	-11.5338
▁grandson	-11.534
パワー	-11.534
▁Lancashire	-11.534
▁calendar	-11.534
非常に	-11.534
でき	-11.534
▁1849	-11.534
規	-11.534
壓	-11.5344
ッチ	-11.5344
tron	-11.5344
好き	-11.5344
▁celebrate	-11.5345
歸	-11.5347
cott	-11.5349
▁eligible	-11.535
信仰	-11.535
▁大阪	-11.5351
tics	-11.5351
ect	-11.5352
欲	-11.5354
▁push	-11.5356
▁AP	-11.5357
録	-11.5358
▁Globe	-11.5358
▁delayed	-11.536
ゴール	-11.5361
▁prayer	-11.5362
▁Armenia	-11.5362
▁Lithuania	-11.5364
roll	-11.5365
大賞	-11.5365
尻	-11.5366
▁revised	-11.5366
zhou	-11.5367
▁Palmer	-11.5368
▁farming	-11.5368
▁petition	-11.537
▁Eli	-11.5371
▁saxophone	-11.5371
▁scandal	-11.5372
Her	-11.5372
単位	-11.5372
マリ	-11.5373
したもの	-11.5374
gna	-11.5375
cel	-11.5376
ジャック	-11.5376
▁usual	-11.5376
▁Holmes	-11.5376
▁technologies	-11.5376
合い	-11.5376
▁z	-11.5377
▁Shan	-11.5377
伊藤	-11.538
おお	-11.538
煙	-11.5381
▁dialogue	-11.5382
くん	-11.5382
女王	-11.5383
かり	-11.5383
己	-11.5384
▁Recording	-11.5384
▁worker	-11.5384
▁Ai	-11.5385
昂	-11.5387
▁1975,	-11.5388
日より	-11.5388
amp	-11.5388
League	-11.5389
▁Speed	-11.5392
▁Allan	-11.5395
▁1974,	-11.5395
せる	-11.5396
▁affair	-11.5397
ucci	-11.5398
bble	-11.5399
團體	-11.5401
USA	-11.5401
▁ensemble	-11.5403
▁Krishna	-11.5403
▁freight	-11.5403
一切	-11.5403
ott	-11.5403
运动	-11.5404
ld	-11.5404
▁Emma	-11.5405
▁Angels	-11.5407
3,000	-11.5407
秋田	-11.5407
▁Herald	-11.5407
実現	-11.5408
trans	-11.5409
に就任	-11.5409
September	-11.541
▁allies	-11.5411
▁corruption	-11.5411
驚	-11.5413
主持	-11.5413
▁elite	-11.5413
▁Arm	-11.5413
克斯	-11.5414
アウト	-11.5415
court	-11.5416
▁Belle	-11.5416
アメリカ合衆国の	-11.5416
再生	-11.5417
急行	-11.5417
▁1972,	-11.542
▁株式会社	-11.5422
▁nu	-11.5422
藥	-11.5422
shed	-11.5423
▁arrangements	-11.5424
▁reporting	-11.5424
世の	-11.5424
発売された	-11.5427
mad	-11.5427
仔	-11.5429
指摘	-11.5429
復帰	-11.5429
キャラ	-11.5434
、2012	-11.5434
▁Rom	-11.5435
playing	-11.5436
▁GP	-11.5437
▁Transit	-11.5439
辰	-11.5439
cis	-11.544
通算	-11.5441
▁Clay	-11.5442
ault	-11.5442
▁slaves	-11.5443
1961	-11.5444
不同的	-11.5446
▁distinctive	-11.5447
oid	-11.5448
の一覧	-11.5449
▁relating	-11.545
▁Rice	-11.545
長官	-11.545
▁strain	-11.5454
п	-11.5455
衝突	-11.5455
▁valuable	-11.5455
▁Physics	-11.5455
▁Kazakhstan	-11.5455
备	-11.5455
新たに	-11.5457
▁fluid	-11.5459
arian	-11.5461
事情	-11.5464
名が	-11.5464
fort	-11.5466
▁hybrid	-11.5466
▁relevant	-11.5466
LC	-11.5466
▁disaster	-11.5467
▁dissolved	-11.5468
▁ties	-11.5469
エア	-11.5469
▁pioneer	-11.5469
▁MD	-11.5469
ろう	-11.547
慎	-11.5471
恭	-11.5471
▁organic	-11.5472
職員	-11.5472
任命	-11.5473
▁Bed	-11.5473
サル	-11.5473
Lu	-11.5475
▁Malaysian	-11.5475
▁flew	-11.5477
▁certified	-11.5477
▁undergraduate	-11.5477
Ad	-11.5478
▁tenth	-11.5478
▁unless	-11.5481
▁companion	-11.5482
▁conversation	-11.5482
吴	-11.5483
▁brands	-11.5484
赴	-11.5485
nova	-11.5486
▁Cornwall	-11.5487
llen	-11.5487
▁1985.	-11.5487
isch	-11.5488
lik	-11.5489
関係者	-11.5489
▁Maritime	-11.549
许多	-11.5491
▁Indigenous	-11.5492
▁旧	-11.5492
▁speaker	-11.5494
anta	-11.5496
▁extinct	-11.5496
リック	-11.5496
EE	-11.5496
の間に	-11.5497
▁voyage	-11.5497
front	-11.5498
あった	-11.5499
▁Sudan	-11.5499
競馬	-11.55
兵衛	-11.5501
ald	-11.5502
しく	-11.5502
▁Murder	-11.5505
organ	-11.5506
柴	-11.5507
ign	-11.5508
▁Germans	-11.5509
▁internet	-11.551
済	-11.551
escu	-11.5512
月刊	-11.5512
▁1977,	-11.5513
譯	-11.5513
本名	-11.5513
、2006	-11.5514
cfc	-11.5514
trop	-11.5517
ann	-11.5519
▁Pel	-11.552
▁presents	-11.5521
ブー	-11.5522
▁milk	-11.5524
▁chemistry	-11.5525
▁Walk	-11.5525
▁elementary	-11.5525
▁layout	-11.5525
户	-11.5526
Ja	-11.5526
▁Gmina	-11.5527
stown	-11.553
▁−	-11.553
▁Never	-11.5531
▁Classical	-11.5533
成员	-11.5534
▁Relations	-11.5534
に出演	-11.5535
▁sing	-11.5536
▁tourist	-11.5537
安定	-11.5538
▁investigate	-11.554
▁sculptor	-11.5541
ジョージ	-11.5542
▁rap	-11.5542
组成	-11.5542
zia	-11.5543
▁favorite	-11.5544
▁debuts	-11.5544
ボル	-11.5545
另一	-11.5545
▁temporarily	-11.5545
▁Adrian	-11.5546
}}	-11.5546
▁Lion	-11.5546
▁1980,	-11.5547
fra	-11.5548
天主教	-11.5548
jin	-11.5549
▁Resources	-11.5549
▁92	-11.555
▁structural	-11.5551
▁indicating	-11.5551
相当	-11.5551
▁error	-11.5552
wall	-11.5552
bird	-11.5554
imp	-11.5554
▁tours	-11.5556
▁phrase	-11.5557
模式	-11.5557
▁Kenneth	-11.5558
▁failing	-11.5558
生成	-11.556
lf	-11.5561
よし	-11.5561
shaw	-11.5565
製の	-11.5565
態	-11.5566
メント	-11.5567
COM	-11.5567
穂	-11.5568
連隊	-11.5569
▁Ferdinand	-11.5569
opa	-11.557
OM	-11.557
▁arriving	-11.5572
▁elevated	-11.5573
▁emotional	-11.5574
私立	-11.5575
té	-11.5575
ord	-11.5577
▁stick	-11.5577
▁belongs	-11.5579
▁1853	-11.5579
▁landmark	-11.558
▁Aero	-11.558
、10	-11.5581
▁columns	-11.5585
sized	-11.5585
用語	-11.5585
Si	-11.5588
eer	-11.5588
導入	-11.5589
ān	-11.559
▁paint	-11.559
1959	-11.5591
可能性	-11.5592
nick	-11.5592
麦	-11.5592
music	-11.5592
▁catch	-11.5595
after	-11.5595
para	-11.5596
ブロック	-11.5597
▁raising	-11.5599
▁Alpha	-11.5599
▁departments	-11.56
▁Batman	-11.56
▁Wol	-11.5601
dam	-11.5602
當地	-11.5604
oa	-11.5606
ネル	-11.5606
duc	-11.5607
▁informed	-11.5608
р	-11.5609
顺	-11.5609
中共	-11.5609
町立	-11.5609
斷	-11.561
▁Bronze	-11.561
▁Producer	-11.5613
▁installation	-11.5613
▁VII	-11.5613
してきた	-11.5614
她的	-11.5618
▁academy	-11.562
▁sitting	-11.5621
のない	-11.5623
▁真	-11.5623
全面	-11.5624
Du	-11.5624
出现	-11.5625
▁Herzegovina	-11.5625
▁1981,	-11.5626
morph	-11.5627
▁procedure	-11.5628
chief	-11.563
のほか	-11.5631
▁Manitoba	-11.5631
フラ	-11.5633
▁terrorist	-11.5633
▁1976,	-11.5634
▁Eve	-11.5635
年より	-11.5637
HP	-11.5638
▁evolved	-11.5639
▁flights	-11.5639
▁Abd	-11.5639
▁import	-11.5641
Gra	-11.5641
莎	-11.5641
pot	-11.5645
▁(1990)	-11.5645
OK	-11.5645
hur	-11.5646
▁Gardens	-11.5646
▁Sai	-11.5647
▁magic	-11.5647
▁cathedral	-11.5647
▁escaped	-11.5647
共演	-11.5647
▁Kos	-11.5648
▁veteran	-11.5649
▁Author	-11.5649
衛星	-11.565
oj	-11.565
late	-11.5651
ニング	-11.5652
寒	-11.5652
▁referee	-11.5652
掛け	-11.5654
イラスト	-11.5655
▁Mixed	-11.5655
▁manuscript	-11.5655
▁McG	-11.5657
可能な	-11.5657
★	-11.5658
▁Ahmed	-11.5658
ologists	-11.5658
▁scores	-11.5658
▁qua	-11.566
貨	-11.566
▁1978,	-11.5661
▁Qua	-11.5661
November	-11.5663
▁massacre	-11.5663
▁1983.	-11.5663
君主	-11.5664
1932	-11.5664
▁Railways	-11.5664
kawa	-11.5666
录	-11.5666
ドリ	-11.5666
▁climb	-11.5666
决定	-11.5669
▁Doug	-11.5669
▁imprisoned	-11.5669
1928	-11.567
▁Gr	-11.567
規則	-11.5672
▁walking	-11.5672
▁Arc	-11.5672
rier	-11.5673
に入	-11.5673
寮	-11.5674
帝國	-11.5674
LI	-11.5676
▁therapy	-11.5676
▁styles	-11.5676
▁printing	-11.5677
移民	-11.5679
政党	-11.5679
▁CF	-11.568
▁lord	-11.5683
アート	-11.5683
トレ	-11.5683
▁(1991)	-11.5685
批	-11.5687
指示	-11.5687
▁Broad	-11.5687
導致	-11.5687
鼓	-11.5689
▁partial	-11.5689
cop	-11.569
hurst	-11.5691
▁Roth	-11.5691
全日本	-11.5691
滿	-11.5691
賽事	-11.5692
工学	-11.5693
記述	-11.5693
ulu	-11.5693
vision	-11.5694
â	-11.5694
tai	-11.5694
ンド	-11.5695
▁tip	-11.5695
▁ft	-11.5696
の息子	-11.5698
▁gate	-11.5699
陶	-11.5699
▁empire	-11.5701
▁Din	-11.5702
譜	-11.5702
▁Bailey	-11.5702
乌	-11.5704
IF	-11.5704
▁arena	-11.5704
lick	-11.5707
芸	-11.5707
▁Ei	-11.5709
青春	-11.571
eman	-11.5711
かれ	-11.5711
▁suspension	-11.5712
表演	-11.5713
▁CM	-11.5713
▁feeling	-11.5715
亞洲	-11.5716
匹	-11.5717
小さな	-11.5717
▁Episcopal	-11.5717
▁archaeological	-11.5717
世紀の	-11.5717
order	-11.572
東宝	-11.5721
移籍	-11.5722
カール	-11.5723
の女性	-11.5724
▁Thunder	-11.5726
▁alive	-11.5726
▁dialect	-11.5727
▁objective	-11.5729
▁pot	-11.573
單曲	-11.573
新潟	-11.5731
▁Tau	-11.5731
▁tag	-11.5732
▁afternoon	-11.5733
▁approached	-11.5733
▁Database	-11.5733
▁virtual	-11.5736
磁	-11.5737
聴	-11.5737
tant	-11.5738
范	-11.5738
ディレクター	-11.5739
小林	-11.5739
▁Fernando	-11.574
ár	-11.5741
ias	-11.5741
迎	-11.5743
▁variable	-11.5743
▁militia	-11.5744
▁bench	-11.5744
▁XI	-11.5746
球場	-11.5746
pho	-11.5746
▁Make	-11.5746
▁Dub	-11.5747
▁gardens	-11.5747
重量	-11.5748
DT	-11.5748
glo	-11.5748
后来	-11.5748
旭	-11.5749
まれ	-11.5749
被害	-11.5749
譲	-11.575
▁rice	-11.575
▁Combat	-11.5751
▁consist	-11.5751
▁Towns	-11.5752
▁evil	-11.5753
▁carries	-11.5753
spor	-11.5754
lang	-11.5754
ポーランド	-11.5755
▁rebellion	-11.5755
ographic	-11.5756
▁sweet	-11.5756
几	-11.5756
▁ed	-11.5757
▁130	-11.5758
fest	-11.5759
▁Josh	-11.5762
▁electro	-11.5768
▁blind	-11.5772
▁campaigns	-11.5772
办	-11.5773
▁blog	-11.5773
▁copper	-11.5774
bes	-11.5774
坪	-11.5777
▁ra	-11.5777
领	-11.5778
▁pl	-11.5778
chu	-11.5779
教室	-11.5781
▁ka	-11.5781
▁森	-11.5781
▁ja	-11.5782
▁unlike	-11.5782
vari	-11.5782
▁pairs	-11.5782
弟子	-11.5783
▁Fellowship	-11.5783
rib	-11.5784
ただ	-11.5785
臺	-11.5786
化した	-11.5787
▁Duncan	-11.5788
test	-11.5789
▁歷史	-11.579
▁Ecuador	-11.5791
▁Brussels	-11.5793
▁Sheriff	-11.5793
临	-11.5794
▁Pink	-11.5797
▁參見	-11.5798
▁visits	-11.5799
uel	-11.58
▁93	-11.5801
顧問	-11.5804
▁verse	-11.5804
▁helps	-11.5805
▁broadcaster	-11.5805
▁meta	-11.5805
ider	-11.5806
dem	-11.5806
聯賽	-11.5808
▁writings	-11.5808
▁Currently	-11.5809
▁praise	-11.581
影响	-11.5811
▁rec	-11.5811
▁footage	-11.5811
▁commenced	-11.5812
年齢	-11.5812
▁Advanced	-11.5813
pid	-11.5814
▁revival	-11.5815
dai	-11.5817
▁Glass	-11.5817
▁1846	-11.5818
ost	-11.5818
归	-11.582
▁citing	-11.5821
透過	-11.5822
產生	-11.5824
▁disbanded	-11.5826
rite	-11.5826
oper	-11.5827
▁Chase	-11.5827
▁sharing	-11.5828
▁measured	-11.5828
▁Shar	-11.5829
圍	-11.5829
GB	-11.583
liga	-11.583
なん	-11.5835
▁0.0	-11.5836
▁Sign	-11.5836
语言	-11.5836
▁explosion	-11.5837
ugh	-11.5837
▁coins	-11.5841
piece	-11.5841
築	-11.5841
肩	-11.5842
▁Oh	-11.5842
▁1979.	-11.5843
▁Eye	-11.5844
東西	-11.5844
クイズ	-11.5845
lect	-11.5845
TF	-11.5846
ティング	-11.5847
保険	-11.5847
描述	-11.5848
bound	-11.5848
▁danger	-11.5849
市镇	-11.5849
墨	-11.585
▁125	-11.585
▁Lakes	-11.585
January	-11.5851
▁Fighting	-11.5851
ilo	-11.5852
RN	-11.5853
▁Dai	-11.5853
▁Luxembourg	-11.5853
▁Spider	-11.5855
▁priests	-11.5855
運輸	-11.5856
閣	-11.5857
▁motorcycle	-11.5859
工业	-11.586
束	-11.5861
phil	-11.5863
tian	-11.5863
▁exile	-11.5864
▁Fifth	-11.5864
stock	-11.5864
弁護士	-11.5864
▁MO	-11.5865
esi	-11.5866
▁Mini	-11.5867
ポリ	-11.5867
▁Tab	-11.5867
▁Amendment	-11.5867
リンク	-11.5868
准	-11.5869
プロダクション	-11.587
▁behaviour	-11.587
▁Ludwig	-11.587
▁Hopkins	-11.587
▁vary	-11.587
▁Guards	-11.587
▁productions	-11.5871
▁Af	-11.5871
▁historically	-11.5872
Robert	-11.5873
仮	-11.5874
証	-11.5874
▁Cover	-11.5876
▁Chin	-11.5876
body	-11.5877
▁indoor	-11.5878
男女	-11.588
”(	-11.5881
▁Complex	-11.5881
▁Stakes	-11.5881
▁ranging	-11.5882
tting	-11.5883
World	-11.5884
▁Speaker	-11.5884
▁ju	-11.5885
=3	-11.5885
vie	-11.5886
乾	-11.5886
▁Legislature	-11.5886
▁mosque	-11.5886
ヒット	-11.5887
eno	-11.5888
数の	-11.5888
▁Rolling	-11.5889
▁Woods	-11.5889
回復	-11.5889
内閣	-11.589
▁sounds	-11.589
結合	-11.5891
▁institute	-11.5891
UM	-11.5892
姉	-11.5892
姉妹	-11.5893
▁simultaneously	-11.5893
ケル	-11.5895
▁freestyle	-11.5895
atta	-11.5896
▁Sullivan	-11.5897
HF	-11.5899
▁killer	-11.5899
▁二	-11.5904
▁patent	-11.5904
▁boss	-11.5905
▁difficulties	-11.5905
▁lakes	-11.5906
ssen	-11.5906
craft	-11.5906
▁thanks	-11.5907
▁options	-11.5908
使得	-11.5908
▁innovation	-11.5908
▁SH	-11.5909
▁Powell	-11.5911
▁ridge	-11.5915
igh	-11.5915
rous	-11.5915
大学院	-11.5917
▁Gui	-11.5919
集團	-11.592
▁shoulder	-11.592
▁theories	-11.5921
ウィリアム	-11.5922
▁hospitals	-11.5924
▁stake	-11.5926
蒲	-11.5926
オフ	-11.5927
▁dealing	-11.5927
VR	-11.5927
▁fin	-11.5928
oe	-11.5928
MM	-11.5928
ウル	-11.5929
旁	-11.593
Big	-11.5931
▁Lithuanian	-11.5932
▁Impact	-11.5932
阪神	-11.5934
▁thinking	-11.5935
▁Continental	-11.5937
(9	-11.5937
▁Julia	-11.5937
Sp	-11.5938
、2013	-11.5938
発言	-11.5938
▁provision	-11.594
鐵道	-11.594
mie	-11.594
pes	-11.5941
tto	-11.5941
絲	-11.5941
▁variation	-11.5943
eas	-11.5943
攻擊	-11.5944
大きく	-11.5944
▁Exp	-11.5945
Ireland	-11.5946
繼	-11.5947
▁hidden	-11.5947
乘	-11.5948
▁Pic	-11.5949
戦い	-11.595
▁referring	-11.595
▁transformation	-11.5953
▁Shield	-11.5953
▁shock	-11.5953
▁Rabbi	-11.5956
»	-11.5958
▁prices	-11.5959
▁Nacional	-11.5964
師団	-11.5964
▁sporting	-11.5966
▁1968,	-11.5967
した後	-11.5968
▁Presbyterian	-11.5969
▁Faith	-11.5969
▁Own	-11.5972
紋	-11.5974
▁Bala	-11.5974
▁(11	-11.5976
一時	-11.5977
▁Georg	-11.5977
由来	-11.5978
の後	-11.5978
▁listings	-11.5978
▁Parliamentary	-11.5979
▁Finn	-11.598
▁Gul	-11.598
France	-11.5981
▁ticket	-11.5983
▁fu	-11.5983
西北	-11.5983
▁Miles	-11.5984
▁talks	-11.5985
David	-11.5985
あまり	-11.5985
▁Eventually	-11.5986
hole	-11.5986
出力	-11.5987
sberg	-11.5987
ごと	-11.5987
幹	-11.5987
岡山	-11.5987
7,000	-11.5988
Br	-11.5989
▁Newport	-11.5989
▁Sat	-11.5989
▁FK	-11.599
隠	-11.5991
▁UFC	-11.5991
▁treat	-11.5993
开发	-11.5994
ject	-11.5995
づ	-11.5995
▁pub	-11.5995
銀河	-11.5996
カリ	-11.5997
▁reducing	-11.5997
wind	-11.5997
▁Sil	-11.5998
▁locomotive	-11.5999
るが	-11.5999
▁Emmy	-11.6
▁documented	-11.6
桐	-11.6001
前後	-11.6002
▁comprehensive	-11.6002
▁Belgrade	-11.6003
申請	-11.6004
用于	-11.6006
ę	-11.6008
市内	-11.6009
▁automatic	-11.6009
▁Amy	-11.601
▁(2021)	-11.6011
動作	-11.6011
▁Graduate	-11.6014
▁worn	-11.6014
▁bow	-11.6015
fully	-11.6016
ング	-11.6018
修正	-11.6019
▁Nobel	-11.6019
ビジネス	-11.6019
▁Mei	-11.6019
▁surrender	-11.6019
结	-11.6021
Art	-11.6023
▁Linda	-11.6024
▁bore	-11.6025
з	-11.6025
苏联	-11.6025
これが	-11.6029
庆	-11.6029
を除く	-11.6029
rain	-11.6029
▁Zoo	-11.603
speaking	-11.603
入口	-11.6032
▁収録曲	-11.6033
ester	-11.6034
新人	-11.6035
據	-11.6035
▁Emily	-11.6035
▁ESPN	-11.6036
▁Ple	-11.6038
大橋	-11.604
妮	-11.6041
人々	-11.6042
bie	-11.6043
マリア	-11.6043
▁blow	-11.6044
大学の教員	-11.6046
殺人	-11.6046
▁オ	-11.6047
hart	-11.6047
カット	-11.6048
▁昭和	-11.605
▁drink	-11.605
▁IT	-11.6051
导	-11.6054
▁Heath	-11.6055
資源	-11.6055
良い	-11.6055
dimensional	-11.6056
[...]
